/**
  ******************************************************************************
  * @file    network_data_params.c
  * @author  AST Embedded Analytics Research Platform
  * @date    2026-05-13T02:32:42+0900
  * @brief   AI Tool Automatic Code Generator for Embedded NN computing
  ******************************************************************************
  * Copyright (c) 2026 STMicroelectronics.
  * All rights reserved.
  *
  * This software is licensed under terms that can be found in the LICENSE file
  * in the root directory of this software component.
  * If no LICENSE file comes with this software, it is provided AS-IS.
  ******************************************************************************
  */

#include "network_data_params.h"


/**  Activations Section  ****************************************************/
ai_handle g_network_activations_table[1 + 2] = {
  AI_HANDLE_PTR(AI_MAGIC_MARKER),
  AI_HANDLE_PTR(NULL),
  AI_HANDLE_PTR(AI_MAGIC_MARKER),
};




/**  Weights Section  ********************************************************/
AI_ALIGNED(32)
const ai_u64 s_network_weights_array_u64[5001] = {
  0xbeaacc24bc9f6757U, 0x40032db840ba8995U, 0x3f3280003dd26efdU, 0x40026eac41291d5aU,
  0x3f517b5c3d030685U, 0x3e06c52c408a053aU, 0x3f8a3a983d3dd260U, 0xc012d1f8c03c09e0U,
  0x3f13f4093cb84bdaU, 0xbdb1bfe54049f3eeU, 0x3e383f87bc8ae4f2U, 0x3fe2578e40437409U,
  0xbec99b8cbd548ecbU, 0x402177ffc035e7e9U, 0x3ca88f48bd483967U, 0x400c996e40630258U,
  0xbf3da01cbd3fb9bfU, 0xbfa94fe1c024086cU, 0x3e380691bbba89adU, 0xbf8baf3dc0840da0U,
  0x3e7af0c1bcc2c3c4U, 0xbfa5d3cfbfef8e6fU, 0x3f9c61733d311f8dU, 0xbf84cf313fb6932fU,
  0xbfc57cedbe22caecU, 0x3fb931fdc01b6552U, 0xbf08ea34bd5bf4b5U, 0x4046296fbfc82a2dU,
  0xbdf4040b3d3734ebU, 0xc01589e2c0968d72U, 0xbefbff4dbd8ecd0aU, 0x4043bbcf410615dfU,
  0xbdc6d52dbc5a3baaU, 0x405177ad4175aba2U, 0x3edf624d3c816decU, 0xc0193b5fc09d3dc7U,
  0x3e3dd4e7bd8cc78cU, 0x4021f7d2be01ddeeU, 0xbe1ea11bbbec58beU, 0x4051398241705d99U,
  0xbf870e99bdeea25bU, 0x4021dabcc01bf6a9U, 0x3f741cdd3e3655a3U, 0xc0055ccfbea41877U,
  0x3fc501a33d343af8U, 0xbf91f12c3fb17fbcU, 0xbe2ce36fbb21448fU, 0x405050f1415ccf7aU,
  0xbfa46403bc896aabU, 0x3fa9fe3bc0a25b41U, 0xbcf5f57cbc82f3aaU, 0x404904d541745133U,
  0x3d858d7a3bb275b9U, 0x4006571a415a1923U, 0x3f26baf03da4f101U, 0x3fa3ffea41090624U,
  0xbedbebc4bd89bd67U, 0x402e78d6bf47e717U, 0x3f30bbc53d3d1d90U, 0xbf6c73bb3fd70996U,
  0x3e35a1fe3cb06174U, 0xc019715fc0de575aU, 0x3f6b88b43de3b86cU, 0xc0097b6640156fa3U,
  0xbfc1550fbdc4640dU, 0x3f0f4dd8c05de503U, 0x3e5ae75f3be53d01U, 0xbf4160aa4071de42U,
  0x3c2ebf603d7ef573U, 0xbff6b4debede1becU, 0x3ed4fd0e3d814e0eU, 0xc0199a34bfd8f447U,
  0xbf2274b5bcfc8dafU, 0xbfb1f83cc1386e5fU, 0xbe9de69fbd151546U, 0x4019aba84024b91fU,
  0xbe77f34f3c9f8d3eU, 0xc02898e0c0ff5f81U, 0x3deb49b83c7a4644U, 0xc0224a75c121c2bfU,
  0xbdf435ff3b6ad149U, 0xc004059bc14edd88U, 0x3ce2dfb33d13bb77U, 0x3f0cb4f1c0a72a86U,
  0xbe5426dd3cb6f5e4U, 0xbdca3803c0acdebbU, 0xbd8f96b7bcb10dafU, 0x402c3d7d3f83c3abU,
  0x3e955145bc9f1593U, 0xc02b97e3c14059acU, 0xbf41449fbc8af042U, 0xbee411ffbfb65a08U,
  0xbefaac993d3c3f03U, 0xbfaf75823f55b79fU, 0xbf1732ebbd8ced15U, 0xbfc6def8c114f11fU,
  0x3e6abbf73c63688fU, 0xc043324ac157ea5eU, 0xbf07c9fb3ce6a4d7U, 0x3f51f47b3f483067U,
  0xbdf32ababd74c66aU, 0x3f894ea93fd75325U, 0xbe57a7cd3d31fc26U, 0x3facbedf40faff3cU,
  0xbeea7665be23880aU, 0xbfd7005ec14a3a19U, 0xbeb610243ca97a91U, 0xc01b101ec0fae93bU,
  0xbeb160a4bceafa2dU, 0xbe88d7efc055996eU, 0xbf55f741bd101f9fU, 0xbfcaed87c10c2570U,
  0xbf476564bd4d14fdU, 0x3feac6a9bfea5061U, 0xbf847efcbd983a19U, 0x3f6d8807c09d5191U,
  0xbf3fb39abda16c8dU, 0xbe9a02bbc09f22fcU, 0x3f128bcc3d9d9dbbU, 0xc0128926c00060f2U,
  0xbcb8dc463c0d5f1bU, 0xbf77c3f2c0c1954dU, 0xbe6ec8b63dbe8ca0U, 0x3eb2a817c0327233U,
  0xbdf0fd94bce7d4e4U, 0x403c81444100ac79U, 0x3e895ac33cdb4498U, 0xc0345b6fc1457009U,
  0x3ed793723d9ee9e2U, 0x3fbb12f24103e682U, 0x3f146ddebce32c32U, 0x40202efd3fbdcb57U,
  0xbe24be85bcfd60f9U, 0x401f30f540c0126aU, 0xbf4da062bd55910dU, 0xbff0a98fc1363b24U,
  0x3e338c93bd5fd790U, 0xbe44c6bbc1008451U, 0x3f3b23d03e47d5c0U, 0xbfa3c8183dbec575U,
  0x3f52bb6e3e07ead6U, 0xbf3a29bf40a33599U, 0x3f082ebdbd14434eU, 0x3fd96275402ad2d5U,
  0xbb9c2cf43cf3f869U, 0xc03a6e83c144916fU, 0x3fa713ff3d51e6feU, 0xbfcea54cbda7148aU,
  0xbf2b70bebd8731baU, 0xbfc51fc7c10708bfU, 0xbf0b8879bd86f9ceU, 0x3ff0fe4fc0b0f323U,
  0xbe313491bcf0673cU, 0x4002be59be9020fcU, 0x3e9b74ce3dde2b5dU, 0xc059dd15c015beaeU,
  0x3ea9f24ebc68c98fU, 0x40020eb4414ac7ddU, 0x3eb4c73db9a73b0eU, 0x3fd32f2540cf0550U,
  0x3e20f15abbe2301cU, 0x3fb92e2f4101e0a9U, 0x3fae740a3e418779U, 0xbfafabe93fe71177U,
  0xbf21d1f8bd4d140bU, 0x3d27fd04c0d36946U, 0xbe25e637bc5e9c5bU, 0x40292270414567cbU,
  0x3e239985bdfb6768U, 0x3fa3f4bcc0a48d76U, 0xbf7689bdbd83b28aU, 0x3fd75bbfc0312f79U,
  0x3fae03b13d48118aU, 0x3f06cc92408f669cU, 0xbf0bc6bcbd43014bU, 0xc011f101c0df3404U,
  0x3f803f293ca21f1fU, 0x3fe1246b4137544fU, 0xbf2f30f3bd07631cU, 0x4004d0ecc0c8c58bU,
  0x3f6259d73d137e07U, 0xbbd6edc140b76d30U, 0xbf814239bd8b1eabU, 0xc00b2bd2c1379682U,
  0x3e81679d3d347e11U, 0xc031f01ac11844b3U, 0x3dd5572ebb80509aU, 0x4029f83b40ee01a2U,
  0x3ef024cf3daa9d4bU, 0xbfb5f509402de9c9U, 0xbf0a2c4a3b5600f3U, 0xbf90fef9c0efd72fU,
  0xbdc3fd42b8ebd10cU, 0x404c786140f9eef1U, 0x3dd92c7ebca9b4f6U, 0x400ffb92410d7745U,
  0x3e809a1e3cf807a9U, 0xbfd379fa3da7e5fcU, 0xbdb6e8f2bb6997f3U, 0xbffd84c33e8d9b83U,
  0xbeeb0d2dbd8b561cU, 0xbfd0611cc10f74e7U, 0xbe9836f1bd40310fU, 0x3feb02d840588c35U,
  0xbea38ca2bd10a631U, 0xbfaec7f63faf592fU, 0x3fa45efc3dac8f6eU, 0x3e6d6ee640b55af8U,
  0x3dbf0b24bcd072f5U, 0x40236e393f988d31U, 0xbed0867fbac46d91U, 0x40050138c02dda9aU,
  0xbe0a2d0cbbf3d59bU, 0xc0264416c163fad6U, 0x3f5134e53d08111dU, 0x3eced9d6bf1af12dU,
  0x3f9cd92c3d08dc40U, 0x3d2c6f813fb81de0U, 0x3f4cf6643d8d0607U, 0xbfc8c6063f8e54b3U,
  0x3cc34ac33ca7b340U, 0xc027a60bc119324cU, 0x3d80dfe03c392a66U, 0xc04112b4c15cf95dU,
  0x3fa56cfd3dc80566U, 0xbf93be8f40821959U, 0x3ebd69ae3d66403aU, 0xbf32dd5d407efa34U,
  0x3dc44a61bd20c3d1U, 0x402825af41142127U, 0x3f060e073d7ca699U, 0x3fe15d4d410ddbffU,
  0x3e79f4963c10f020U, 0x3fbed2b8413b5019U, 0x3e36d619bc276d48U, 0x3f2e1ac040d750ecU,
  0x3f461fc63d707652U, 0xbf9b8367c02f4831U, 0xbdc08584bca29c17U, 0x403e840f4143133cU,
  0xbc1e697bbaffe74fU, 0x401bf6ae412f374aU, 0xbfc29c513d0a562cU, 0x3f9c573bbf51f9c6U,
  0xbef37f3dbd10b169U, 0x3f86d21c403e6c70U, 0xbea5d6a6bd5b847dU, 0x404656c9c0877930U,
  0x3f720362bcebdb45U, 0x400cbbf440803e9eU, 0x3e8de42a3c827843U, 0xbfdff186bf342ae4U,
  0x3d81cea53b10d252U, 0x4023255e4144b566U, 0x3f717b123d543e5eU, 0xbd6aa34a40b609ceU,
  0x3f43919d3de50059U, 0x3ef3cec540b7d486U, 0xbed1d00dbadc3e77U, 0xc016d740bfb4199cU,
  0xbefd2906bb056966U, 0x3fb57d32bfe22b66U, 0xbd8ee404bcc869bcU, 0x40478f204168a538U,
  0x3f70a88e3c802100U, 0x3fdc16bc400d6f25U, 0xbf15484fbd4b37e5U, 0x3ff3eb193fa04608U,
  0x3f96e9e73da61a1bU, 0xbffab16940481094U, 0xbd9d71d1bbb655e9U, 0x403a81f64140b86fU,
  0x3e8a96dfbc532976U, 0x400d9cc13f67d3deU, 0xbe609d383d1ab324U, 0xbf505981c0effd07U,
  0x3f843d233d51cbc9U, 0xbf64f2af4015898eU, 0x3f5904033ddd91cbU, 0xbfc39476403e7b83U,
  0x3e165ceabd28aa60U, 0x402b9a763f9cb05fU, 0x3f79e03ebcb06b13U, 0x3f6ca86a3ca424a8U,
  0xbfafbee5bdf41b12U, 0x3fb5f837c046b869U, 0xbd639fa53c6b6cbfU, 0xc02931d8c0232ca3U,
  0x3e0d25293cca824aU, 0xc0432065c15fc78fU, 0x3a6db3613d0e5847U, 0xc03de4c0402ba0f2U,
  0xbda77b87bb1f17e2U, 0x403500e5414abecaU, 0x3d2564473d097f45U, 0xc041214bc119ce29U,
  0xbf6bac3c3c94895eU, 0xbf1a057cbf6fb49fU, 0x3e7c0ac6ba0b214aU, 0x3ffe20d840813ee5U,
  0x3dcc383fbc0d94aeU, 0x401e3568bede3ad3U, 0xbd6f18afbdb17cf8U, 0x402d192141190c1eU,
  0x3ce4537dbbc80276U, 0x3feb580b4100909dU, 0xbd7831b83c6626dfU, 0xbfaefcb2c03f6dc6U,
  0x3f65c1423d17f8ccU, 0x400e3c9bc01d0ddeU, 0xbf3374c7bd13a6d3U, 0xbfb1ae6cc141eacfU,
  0xbe0859eebc8cc33fU, 0x403e67294160b6d3U, 0xbe98b94fbcd0ce9eU, 0x3fdf73a7410834d3U,
  0x3fa13dc23dc3ff06U, 0x3f51488a405a768aU, 0x3ef8f9aa3def9c5cU, 0x3f68ebbe411b4c3cU,
  0x3d5224893bd51571U, 0xbf4af7a44090cef8U, 0x3f15de4a3b2e75c3U, 0x401954f8409c4e1eU,
  0x3fa9b55f3d225bc6U, 0xbed190623fe2711dU, 0x3e0ef6fe3b60d1c5U, 0xc0510fbac128b193U,
  0x3f30ef143d054a38U, 0xbf624cc93c814211U, 0xbcb870963af38b54U, 0xbfa45e92c0fa007eU,
  0xbead38b7be101e8cU, 0x40047142c060b47eU, 0x3e74de003d78a5a0U, 0xc0168fb3be527934U,
  0x3fa3383c3df3aa9aU, 0xbfe32ea24081232bU, 0xbd21b2fe3d0e8343U, 0xbfe9130bc0dab513U,
  0xbea38af438040686U, 0xc021bac4c06b3a8aU, 0xbf05a9b0bd4d74ddU, 0xbfe14210c17d5320U,
  0xbe5cf6d13cb0cd47U, 0x404edd8941655b7eU, 0x3f0ad4c83cab4275U, 0x3f0d805e40b2773eU,
  0xbfa6694abe1923f2U, 0x3fb02638bfcbc495U, 0xbd8efc283c881ad5U, 0xc02eea0ac164f653U,
  0x3dd6f9a43cd8470dU, 0xc0323ad5c13fd5ffU, 0x3d102221bc9d9633U, 0x3fea704d4046aafcU,
  0x3caf8878bd9736eaU, 0x3fc5ccc3bf7ef593U, 0xbf552ea3bd914a6cU, 0xbf095824c0e273bdU,
  0xbd756306ba8bd90bU, 0x40261d9e415dfc18U, 0xbf9e7eaebd3edf2fU, 0xbfc37a11c0e61c29U,
  0xbf8d7ffabdea6a99U, 0x3f8b0d37c08b4f17U, 0xbeaaa198bcc76014U, 0x3f01caf8c00eb286U,
  0x3dfe11e23dc9cecdU, 0xc027d0c1c0cf8cd7U, 0x3f23951b3baf8634U, 0xbf8698783e1fbc88U,
  0x3de95a8d3dbb69d8U, 0xbffa220e3f881fdaU, 0x3e1a10ea3ccbc3bdU, 0x3e80a1924104a291U,
  0xbf9f2ec6be1a751aU, 0x3fc73252c082e52dU, 0xbfa90127bd9101ccU, 0xbf9445dec0b1ccc5U,
  0x3d96256bbc8621adU, 0x3fd8435541075cf3U, 0xbd816b0d3a6add6dU, 0xc03594bfc0956be1U,
  0x3f810ae03d26d407U, 0x3fc428fd410630eaU, 0xbf8d2bf03c9b3ff7U, 0xbfca42afc0820ff0U,
  0xbf208d92ba0395c2U, 0xbfb52316c0eb438aU, 0xbdf397773c8f8091U, 0xc0253c83c136982bU,
  0xbf58b90fbd3c1dd3U, 0x400c9464bf93d56fU, 0x3e04185fbd1f0544U, 0xc0261499c13c6a65U,
  0x3f4dceabbc5e3ce4U, 0x3ee4f484c006fd81U, 0x3fa3e5ff3e074d7bU, 0xbeeda3bc40b85315U,
  0x3ed79c623d944cb3U, 0xc03a5d91400c97a3U, 0xbd4849853c135ef4U, 0x4021a70741288ffdU,
  0x3e198ff53d8eb134U, 0xc02fe29dc11ee129U, 0x3ee45a7c398d764eU, 0xbf1f14893febab10U,
  0x3fbcf3a73d5c24b7U, 0xbf95c0bd4070bddfU, 0xbf90bd70bddfc41fU, 0x3f3f6907c05dc11bU,
  0xbd965c8ebcb216e3U, 0x400f6d36405e1bf0U, 0x3fafd6c53d16a658U, 0xbfa7ddd23efad40fU,
  0xbe9c47e6bdc6bff3U, 0x40366a6ec0201dd3U, 0xbe8d53dfbc30ac93U, 0xc00d0097bf0e21e9U,
  0x3fb9b8db3dd8862aU, 0xbf9f4b23401d82c1U, 0x3f9c1e783dd04789U, 0xbf9d23264066343cU,
  0xbe67598cbc88a04bU, 0x3f34eb4ec096118aU, 0x3f1141c83b8144d8U, 0x3f162503bca55fe3U,
  0xbd6ae77ebc69cbbaU, 0x4029a5ee41508deaU, 0xbde98399bc019497U, 0xbf8f11e2c0d7c6deU,
  0x3f9f75683d4c3477U, 0x3e92d68c40fda781U, 0xbdaa9355bccd9260U, 0xc0051e0dc1432ea1U,
  0x3ec295733ca00425U, 0xbff6f745be29a0bcU, 0x3e3846283c0e2c0bU, 0xc056acc9c17bba4aU,
  0xbe861c46bce565efU, 0x3dbb3c3f40b09abeU, 0x3d4f84c53d6d7173U, 0xc051f6fec163ddd2U,
  0xbec240f5bd92d9ffU, 0xc0002287c105231aU, 0xbdb44ca43d11823bU, 0xc00208c5c0fd975bU,
  0x3db5b90f3d22bccbU, 0x3ee6d3ed3fe41cb7U, 0xbe755fb2bc386607U, 0xbf9bd5d1c0f7421eU,
  0xbdaaa2d33b2d6c01U, 0xc025eb68c15f91deU, 0xbe6fce24bce02d8aU, 0x4044bac7413a0f67U,
  0x3eea3c843d9f7d9bU, 0xc01230e640924e83U, 0xbf3617bfbe1190f7U, 0xbfca8237c12af14bU,
  0x3f54fd323d837a46U, 0xbff41bf93ff90ebdU, 0x3facc4753dc9ffc8U, 0xbf18d7f440716242U,
  0x3de346843c643643U, 0x3fe28e05411df451U, 0x3ee8e0193cd7c59bU, 0x3ff13bae40f173cbU,
  0x3df4ec203c2dba89U, 0xc067b790c1805b12U, 0x3f7874ea3cfececeU, 0xbe9fa1573efb6898U,
  0x3f83fcad3d3741faU, 0x3fd0ed3b411ed4e3U, 0x3f133373bd68f2b5U, 0x3f060fc540ec6682U,
  0xbf32b4bdbd49da5bU, 0x4005bbfbc00323f0U, 0x3fba1e8a3da1f54aU, 0x3f01b1754059fe11U,
  0xbf51cce3bd94eecfU, 0xbfe48d28c1440836U, 0x3e3e157b3c435802U, 0x3f9f9983410b3fecU,
  0xbfa9307ebd6f48fcU, 0x3f54f93cc088796bU, 0xbf0333aebb30ab4dU, 0xbfeef5cec130171dU,
  0x3d034d32bc0a1d7aU, 0x403334b4413d9dbfU, 0x3e4fbb233d804ca2U, 0xc02d1d02bf8cbc16U,
  0xbf002617bdc78992U, 0x4035998a40c290bbU, 0xbd31caa7bc74feefU, 0xbff69872c040c85bU,
  0x3fa7b4593d135ccdU, 0xbfe102913f75ea4cU, 0xbf12e9f5bddfb25dU, 0xbf7c4003c133b9bdU,
  0x3ea88662bc8eb52fU, 0x4018027cc004b054U, 0x3f6e4c0fbc58d3e3U, 0x3f349cb0becf66ccU,
  0xbe3ccf5a3cf1f5d0U, 0xc0032d4ec0123e23U, 0x3ac1b533bd0feeaeU, 0xbff95103c100c394U,
  0x3e31c2f33d1e68adU, 0xc0118be8bdf24ac7U, 0x3f0d3e9e3d82beebU, 0x3fa2ba4240de8458U,
  0xbe1327b5bd90bd74U, 0x3de7cf3e3d9bbedcU, 0x3e212f053d69ebdbU, 0x3dacebcb3e023060U,
  0x3d6f4ebd3d46728fU, 0x3d7b4f883d77e792U, 0xbcdb6850be4520cbU, 0xbd844c26be765855U,
  0x3dacdb1cbb5960f6U, 0x3c50e8f33e8f9629U, 0xbe2e9ab4bd86a7d5U, 0x3cffffa13dda1e6eU,
  0x3c8163a1bd29c8a4U, 0x3ddb6bbbbcb92041U, 0x3d5a2968bd2ae0d1U, 0x3db2851f3db54cddU,
  0x3e080e07bdd8a24dU, 0x3dae6285be6e77c0U, 0xbd2c57bf3c3b4a29U, 0x3ccaaac9bd563f9aU,
  0x3ddfd4ebbca7395fU, 0xbd93e9e53d39d9aeU, 0xbe129485bcf67237U, 0x3e267c993df4b7efU,
  0xbe25652fbbab296dU, 0xbdb847bebdfc0d4fU, 0xbd88eed03e3af407U, 0xbd30e250bce7fb7bU,
  0xbdeaa08d3c4da593U, 0xbe104d7bbcddd771U, 0x3e17c0923d346f26U, 0x3c3789733d8f5e2cU,
  0x3e5da8eebe547e8eU, 0x3d733cf9bda0c9a3U, 0xbe941d603d921044U, 0x3e2f73883d3e97f4U,
  0x3d3de612bd1b9108U, 0xbcf501ec3df6ccd8U, 0x3cb07fe63c97188dU, 0xbc9ea5e3bc88a5d4U,
  0xbd278cd3bd61af43U, 0xbd03979a3cc86b7fU, 0xbc8a0922bd7ba597U, 0x3e53cf3a3db4082eU,
  0x3d1a2e1d3d08d186U, 0x3d96682a3d26ee2bU, 0x3d813f633d935aeaU, 0x3c459ff43df73565U,
  0xbdb38de4bd8796a3U, 0x3d2edf75bd270e95U, 0xbdf9f9203e2448bbU, 0x3dd9542bbdc21e10U,
  0x3dacb5413dad1912U, 0x3d672fe03b393f6aU, 0x3d0b5ebc3d4ccb94U, 0x3d4922f83b9cc71bU,
  0x3dff3a5d3d9b7a3eU, 0xbe13e9833d79ebf3U, 0xbd86d8efbdca9645U, 0xbcccf14a3dfb18edU,
  0xbe2b30a53c32fda6U, 0x3d07c538bd5a12e0U, 0x3da2eecd3dbd14a0U, 0x3d6d8c46bd11f962U,
  0x3d2bdb393e1b981dU, 0x3c1ed6bdbd3ca801U, 0x3cda64633e177017U, 0xbd9b9ca23d42f5b3U,
  0x3d9f73c23df99b8fU, 0x3d1da1483d9ef4a2U, 0x3e4d23943da71e43U, 0x3d9e5ea4be0c0aceU,
  0xbdaf6f4c3cf6bdf2U, 0x3d196dd0bcf623f4U, 0xbe8c015ebc82f599U, 0x3dd96c6abd1ebc83U,
  0xbea6331abcea318eU, 0xbd98ae943dcf1ba0U, 0xbb87bc4fbca9a64fU, 0xbe3edfc33e22b2acU,
  0x3df699c0bdbcb9a6U, 0x3db145eb3df33169U, 0x3c6e616d3d18434bU, 0x3d12d81fbd9bda86U,
  0x3dd4f59e3d943585U, 0x3c733011bc09bf09U, 0x3cc6d2333c9781b4U, 0xbd0774fbbe1d7939U,
  0xbda57b87bb48ec76U, 0xbc24e6eebdb04af9U, 0xbdcad2a9bc816560U, 0xbdb9ca56bd2d1846U,
  0x3aae612cbe237f7aU, 0xbd9db079be75acf3U, 0xbdf6394ebd97d5a6U, 0xbd54dfa9bce3a523U,
  0xbe0cfcb73d6bc99eU, 0xbda81a243d117ceeU, 0x3dad84efbd260d84U, 0x3de33e39bd0694deU,
  0xbc5c55783d5c1266U, 0x3d584bd6be0a388dU, 0x3c37d8243d7ef102U, 0x3dd076333d4321a8U,
  0xbd57c6283d9d89e5U, 0x3d819da03d6d68c4U, 0xbc45da8e3daa96a3U, 0xbb850ccdbd3756d3U,
  0x3d0b5fba3d43ef5bU, 0x3c7431373da9dfe1U, 0xbdabea0abde0c9b8U, 0xbe025704bdfc2835U,
  0x3d4088a4be48c371U, 0xbb9e60fd3b5f982dU, 0x3e46c3e8bcf8d72bU, 0x3d8456783d4943b6U,
  0xbbaf0f98be0fb8bbU, 0xbdffee22bc0c8765U, 0x3e3156e33d893028U, 0x3dd22dc0bd6387e9U,
  0xbc9840033d24655dU, 0x3c80ebf2bd8c54f7U, 0x3d1eaa1c3d491104U, 0x3d59da4a3baf8180U,
  0xbcdb8ba13db8de15U, 0x3d123f20ba889b7bU, 0x3e00925ebe4c4cffU, 0xbde0eb39bdddea2eU,
  0xc02e3216c056c3ebU, 0xbfb54f08bffff4aaU, 0xbf095a6bbf6c9f18U, 0xbd860788be8d375bU,
  0x3eae13a53def82e7U, 0x3f8147c43f1e37fdU, 0x401835a63fc737e8U, 0x405d9eeb40408743U,
  0x7768887777886688U, 0x8887677688788767U, 0x7787789878877877U, 0x8888787777867787U,
  0x6876798877987877U, 0x7788776977887678U, 0x7887888878777788U, 0x7788886787777887U,
  0x7687778888788786U, 0x8877897887787796U, 0x6988697786788788U, 0x6777778777678788U,
  0x7778787787787787U, 0x7878688867878687U, 0x8887887767688787U, 0x7887887877778877U,
  0xb787676655747799U, 0x7787667574994446U, 0x75a968959887a796U, 0x59649a78876999a9U,
  0x788858b674589695U, 0x6666867665786898U, 0x8877965697689789U, 0x6767858877994a77U,
  0x7857775677578667U, 0x6967688a85896889U, 0x9a588976888767a5U, 0x9989aaa879688699U,
  0x5778a78887775a79U, 0xaa9a7a768668676aU, 0x8666a9a8777686a6U, 0xa9a6566866588679U,
  0x877888675686788aU, 0x78968757877a6787U, 0x7499787598579788U, 0x68757a7676488a89U,
  0x99794697865974a7U, 0x758594a575775799U, 0xa677686699496779U, 0x7977769767996b87U,
  0x7767886688779778U, 0x7a76759986796887U, 0x6688739677867787U, 0x8978999768879598U,
  0x6896978999776887U, 0x7887869586678967U, 0x8787689988847795U, 0x8a96668566787649U,
  0x7787787878788878U, 0x7777a86978777988U, 0x8878666767578879U, 0x8678888677676877U,
  0x9778766788677677U, 0x8777879668787986U, 0x6678577787778878U, 0x8978868778988788U,
  0x7777878787787988U, 0x6898668789778768U, 0x7688847877867888U, 0x8777786777978667U,
  0x8788689878777777U, 0x7785858697777877U, 0x8889678878a75877U, 0x8777777687887768U,
  0x886777899697978aU, 0x697a98889a7b7aa7U, 0x6559a87886779965U, 0x86a7594756487969U,
  0x67775889867a7697U, 0x677895a99686587bU, 0x6699686889688797U, 0x997767688a687a97U,
  0x7677a76899849887U, 0x8a9896788659a656U, 0x67a9857799799577U, 0x7655989969878677U,
  0x6995978868757797U, 0x6878759897879868U, 0x79965a9a99955996U, 0x9a86777857876646U,
  0x89995666687785a9U, 0x5697b68b79976ab5U, 0x7667796676698686U, 0x856587889647a957U,
  0xa79559677767a5a6U, 0x665894a775986a97U, 0x64865777866976aaU, 0xa88597985aa99976U,
  0x956776766a688a66U, 0x6ba965a8986aa558U, 0x95a9637596787597U, 0x9699797698a8a65aU,
  0x7668756a76855698U, 0x87956496a7696778U, 0x868747a866854986U, 0x7986777785877559U,
  0x7886667677888698U, 0x6788977778777786U, 0x8687576696687778U, 0x6756868777688978U,
  0x9878778777688686U, 0x7767778667777897U, 0x7786676687788888U, 0x9877968868a87879U,
  0x7866767678677877U, 0x6889668877878768U, 0x9677767567766886U, 0x8779898787887778U,
  0x7788867976877979U, 0x8798877696777779U, 0x7689769777886866U, 0x9786786666787779U,
  0x7786789667887887U, 0x7777978978777888U, 0x7787766687578888U, 0x7677767777687877U,
  0x8778867787576787U, 0x8777888687777977U, 0x7667667687788777U, 0x8867869878998788U,
  0x7876787677677888U, 0x7888567778888769U, 0x8698858777677887U, 0x8888796787978877U,
  0x8878778877767787U, 0x9786867697677778U, 0x7678677887875887U, 0x8778677698887669U,
  0x8877777778877788U, 0x7777888978777888U, 0x8777686678687788U, 0x8777878887788878U,
  0x8777877877677777U, 0x7778778678777877U, 0x6777678788888777U, 0x8877768878988867U,
  0x7778777768787888U, 0x7888667788777767U, 0x7688758878778886U, 0x8887778787887877U,
  0x7778888877876877U, 0x7796879697888878U, 0x7788677787876778U, 0x8887788787878769U,
  0x7778989987787776U, 0x9878788788878878U, 0x8987777878787777U, 0x8888768978986786U,
  0x7677987888977a68U, 0x7987797979889777U, 0x8788889876976886U, 0x7688788887657587U,
  0x7878778977886888U, 0x8668886668767886U, 0x7887887967788868U, 0x5788757776777877U,
  0x8878788777788887U, 0x7767877878968788U, 0x7877856787898769U, 0x6678888888776986U,
  0x7999667787686688U, 0x6697979b5a978bc5U, 0x8677787776988697U, 0x9477878a89668858U,
  0x9786785677669789U, 0x6769767867897a96U, 0x6576477886687789U, 0x977689996a989867U,
  0x977766876a798b77U, 0x68b8778778999647U, 0x95a7856696776577U, 0x8798787799b98859U,
  0x8669786a66868668U, 0x86856375a8885597U, 0x9567368766775a87U, 0x8786676797969678U,
  0x8989676567777799U, 0x56a6777979897995U, 0x7569797577799687U, 0x965678878768aa6aU,
  0x999767686668a696U, 0x7568867676887997U, 0x657667779759769aU, 0x877597995a997976U,
  0x8576676689688965U, 0x6987689998899758U, 0x9698576595776597U, 0x98788a8689989679U,
  0x7788876987957778U, 0x8887567696687778U, 0x8677699866666aa6U, 0x7895767785889668U,
  0x868778775575688aU, 0x6778986977885887U, 0x759a77769768a787U, 0x68758a7787598989U,
  0x88785687766885a5U, 0x6576758575786899U, 0x96777757a7598889U, 0x8766857768895a76U,
  0x8767875678578877U, 0x6a8568998699876aU, 0x7777858687877696U, 0x887999a777889678U,
  0x6787978897765978U, 0x9896857696676759U, 0x6776599877857795U, 0x98a6558766697579U,
  0x7776979998898955U, 0x8868688678769768U, 0x9a66967a67865877U, 0x979a677778865676U,
  0x5577a87899975a59U, 0x9a886a7a9a869758U, 0x6878779a68968875U, 0x7789797897558588U,
  0x7999889977976689U, 0x9669985668758896U, 0x7876997a78799958U, 0x6886547876775965U,
  0x976769865868a788U, 0x56588a7978a67886U, 0x7896965778898869U, 0x6669a87989967a85U,
  0x9898566566756677U, 0x6688658766885887U, 0x678969869888a698U, 0x6875988898899878U,
  0x7787768665678885U, 0x6767876757898887U, 0x87678655a7788678U, 0x7756977867786765U,
  0x9655666667589757U, 0x5787597a96986779U, 0xa977796696786795U, 0x889a998789799989U,
  0x5789767886886969U, 0xba97676898686579U, 0x9666898876888776U, 0x8798687886688888U,
  0x8877687768677788U, 0x7777a87878777897U, 0x8777776777678778U, 0x8767887777677867U,
  0x9878777777677777U, 0x7768879677888887U, 0x7778778787777888U, 0x8777768788888778U,
  0x8877796787787978U, 0x7798667788879769U, 0x7688868778767887U, 0x7877876787988868U,
  0x8777777897777787U, 0x7786868698777768U, 0x7778678877776877U, 0x8777778787887768U,
  0x7788878887867887U, 0x8788668686888767U, 0x7887889787987777U, 0x7887778878887897U,
  0x6887788787988888U, 0x8887886878787778U, 0x7877997877888676U, 0x7778696787777877U,
  0x7788888777888677U, 0x8866987887777897U, 0x79777a7787877777U, 0x7777778787687787U,
  0x7778987676798887U, 0x7868787868778787U, 0x8777987888689777U, 0x8777887968787877U,
  0x7778788788778788U, 0x7778688788788776U, 0x8787889877878877U, 0x8877777878877788U,
  0x7876788878888778U, 0x7877876878877678U, 0x8777888868888776U, 0x7787787786787787U,
  0x7688778788887676U, 0x8877797788787787U, 0x7877797777788788U, 0x8777877778677778U,
  0x7787786788877877U, 0x7888787877777977U, 0x8877877778788887U, 0x7888786887878877U,
  0x66788888a9897866U, 0x788758858776a768U, 0x8977989a68a86877U, 0x8899757787a68587U,
  0x56868a7979a66a7aU, 0x6988696a78979658U, 0x7988889957967676U, 0x67877a6698568687U,
  0x7899789986888686U, 0x9567a86689777785U, 0x79876a7987898868U, 0x5577557877777978U,
  0x8887777678798786U, 0x77697a6a69a78896U, 0x887597677859976aU, 0x5669988a77878995U,
  0x68988798ba6a7875U, 0x968667967795a659U, 0xa976866868875787U, 0x978a75a778a66587U,
  0x6686a9677a957a69U, 0x9a88696a89789665U, 0x8967889a57a65876U, 0x66887a7876669579U,
  0x89a967a866986688U, 0x8569976669856785U, 0x88687a8958797979U, 0x6786465677776a76U,
  0x9877596667899766U, 0x66686979789778a5U, 0x9878a565585a9758U, 0x55599967998589a5U,
  0x67579999988a7878U, 0x88688a888868a778U, 0x8865867957675967U, 0x8888677666766777U,
  0x886889789a96687aU, 0x9888789897767778U, 0x8788699958767977U, 0x8899698798769899U,
  0x698a99a9979777a7U, 0xa777a67669667785U, 0x578876886897976aU, 0x7756666867865776U,
  0x9986797758779585U, 0x4467989887969986U, 0x699986678a786778U, 0x7968988769966767U,
  0x7778787999798866U, 0x877858967787a779U, 0x7876989a67a75876U, 0x9899768888a67587U,
  0x56879a7979a77a59U, 0x6989686a98989657U, 0x6888989a57968786U, 0x67976a6687468677U,
  0x77aa779886988677U, 0x9566a96787777784U, 0x69876a7998898769U, 0x5676647777678876U,
  0x9878777678798786U, 0x6758896969b78786U, 0x7876965877588869U, 0x6769987a78867895U,
  0x7797777677776798U, 0x7687988968777897U, 0x8688775797588678U, 0x6768878787598978U,
  0xa978967677668676U, 0x8676777778677996U, 0x8677567787687789U, 0x8767969968a87878U,
  0x7777777778697988U, 0x8889769778877768U, 0x7676858668757876U, 0x9787798687a77779U,
  0x7777778967768688U, 0x7787768595777877U, 0x7779659777786776U, 0x888777758778877aU,
  0x6988778899697877U, 0x7697977b8b96acb6U, 0x7848885856796787U, 0xb589858787767747U,
  0x9796994777757968U, 0x797a689867989968U, 0x6666579878876687U, 0x967689977977a777U,
  0x8888669779897b77U, 0x87a886778a86a746U, 0x74b7757886787678U, 0x8697675779a78957U,
  0x9768476867877577U, 0x6773738699977797U, 0x8798367768795a78U, 0x66788788a8a68878U,
  0x7566898966868a65U, 0xa968586495688449U, 0x7996878789868868U, 0x6a987765779777a7U,
  0x5779878987896969U, 0x87a68a8678777569U, 0x9b88987779878756U, 0x68996655a5566699U,
  0x6869898794976496U, 0x8647977776665ab8U, 0x5a486b9969898a77U, 0x7866879967576796U,
  0x89968885895a7885U, 0x886a9c9957788967U, 0x6978c8678898a578U, 0x878878a867786886U,
  0x7788778777888777U, 0x8777678677888678U, 0x6988879779977876U, 0x8887787877787788U,
  0x6887887887987777U, 0x7777886877877678U, 0x8898987967778787U, 0x6788796877777877U,
  0x7778778766878677U, 0x8766887778777886U, 0x7878796888787876U, 0x7876888878679777U,
  0x7877887787887777U, 0x7779796968778896U, 0x7787987888779788U, 0x6777987877778987U,
  0x6878888898898797U, 0x788889897967a886U, 0x8856886966786786U, 0x8679778776765767U,
  0x7787886779978879U, 0x9968878898778869U, 0x6687689958886797U, 0x87a8798889669678U,
  0x7698879888976897U, 0xa798a67589668675U, 0x6698678766778669U, 0x7685656867876966U,
  0x9877697858878586U, 0x6557778688968785U, 0x8978666778786869U, 0x7967a86877967777U,
  0x7656899868989965U, 0x9949786898678799U, 0x8986756868666968U, 0x8878687666866586U,
  0x8659867999976859U, 0x8888788789768678U, 0x6889797769a68867U, 0x889a678797778699U,
  0x6979998786a66898U, 0xa778956668657777U, 0x6687879969989979U, 0x7765777866866765U,
  0x9886789789597686U, 0x5576969777878a76U, 0x6999676799987769U, 0x9779989679975777U,
  0x79887585787866a8U, 0x6687a78958876996U, 0x9669685686688588U, 0x7668789778577968U,
  0x9887757677678686U, 0x7767677667587996U, 0x7576667876696789U, 0x9667868969a87868U,
  0x8766777779788977U, 0x6999579777889667U, 0x95a6756676655788U, 0x9888898787a87778U,
  0x8667786966867779U, 0x8686657696766787U, 0x8778569786775986U, 0x7886756577868769U,
  0x99a7668686766698U, 0x6686859657995766U, 0x767a69979887a6b6U, 0x7767998a99699a7aU,
  0x778678955568a895U, 0x6777666756788877U, 0x77678657856a7799U, 0x8666976968886846U,
  0x9675665659698667U, 0x67796a8a869a7778U, 0xa976785687675687U, 0x98aa9887aa7a7879U,
  0x656a977865968969U, 0x9989575786675589U, 0x8566899884768897U, 0x879676678667a788U,
  0x8777768768788787U, 0x7777a77877667887U, 0x8867675687687778U, 0x8767778796578978U,
  0x9887966777588677U, 0x8777889688776887U, 0x7677667788788878U, 0x8878868777999778U,
  0x6887777788787887U, 0x7899758779878778U, 0x7677858767668897U, 0x8888787778977777U,
  0x8789678768868678U, 0x7896768687677768U, 0x7788679778866777U, 0x8777787586878679U,
  0x7777787777778778U, 0x7877767877778777U, 0x8878888788788877U, 0x8777787878877778U,
  0x8777887787788887U, 0x7877787787788887U, 0x7777768687878878U, 0x8878787887787877U,
  0x8687677777778877U, 0x7788887777887788U, 0x7778877778888788U, 0x8777787877887778U,
  0x8877768677786877U, 0x7777877788777887U, 0x7778777777986888U, 0x8877787767787887U,
  0x78777586887886a8U, 0x6687a78969977996U, 0x8668786777788688U, 0x7668877888687a69U,
  0x9988757676689786U, 0x8757877778688996U, 0x7666666776696889U, 0x9766968a69a87867U,
  0x8677687778687878U, 0x7998678888989777U, 0x8597756666656787U, 0x9788798697986768U,
  0x8679788a57758779U, 0x7797567696776777U, 0x8687669876965976U, 0x8886666676879879U,
  0x57579a88898a8888U, 0x796999699868a888U, 0x8786876956685956U, 0x8789576665766876U,
  0x987878699a88878aU, 0x9779889797957888U, 0x7698599959778887U, 0x89a96996988797a9U,
  0x588a999898a768a7U, 0xa888a59578679766U, 0x568876976896977aU, 0x8655666856956676U,
  0x9a95698869677695U, 0x456777a686a79986U, 0x6a99777999767778U, 0x6957989678975858U,
  0x9987667687877687U, 0x6788976867876786U, 0x8678686686689798U, 0x8667877878678989U,
  0x8878779786689696U, 0x9767767686686998U, 0x7677677777698789U, 0x9868967868a87978U,
  0x8775776679677787U, 0x7999668977898778U, 0x8779867567766686U, 0x9778888788977778U,
  0x6688877878857889U, 0x8798677695677778U, 0x8777779887867886U, 0x8896786687687769U,
  0x7778877778888787U, 0x8887777877877777U, 0x8777888777788887U, 0x7877778777777787U,
  0x7778787878888868U, 0x7877878778777886U, 0x8877787788786788U, 0x7777878777787787U,
  0x6777887877887788U, 0x7877887778877777U, 0x7778787778686778U, 0x7776777877777778U,
  0x8777777777878788U, 0x8787777786877778U, 0x8777896878878878U, 0x8877788778777878U,
  0x7767877777778878U, 0x8867987868777877U, 0x7777776787788887U, 0x7777777877777787U,
  0x8778877787678777U, 0x8777778778777777U, 0x7778767788768777U, 0x8777778888887887U,
  0x7878877778777878U, 0x7888668787777778U, 0x8788868878877677U, 0x7878768787868877U,
  0x8887777887778778U, 0x7677968677778778U, 0x8788778677877877U, 0x8777788777887777U,
  0x7677a99a87898965U, 0xa958687687668769U, 0x9986957889866967U, 0x6999788678a65595U,
  0x7669978898a75958U, 0x88a76a679a779667U, 0x8969978968a57954U, 0x687a6767a6658599U,
  0x7a79987976877689U, 0x8567975568756986U, 0x6766988a7a888968U, 0x6867767866575895U,
  0x88768996785a9676U, 0x7669a97958978967U, 0x7979855689898659U, 0x857a87876a676986U,
  0x7877687887777778U, 0x7778877687878887U, 0x7778778876887877U, 0x7678877778778887U,
  0x7787778788778787U, 0x7778787777777777U, 0x8778778787788878U, 0x7777767878777777U,
  0x7877776878878678U, 0x7777787888877787U, 0x7777778778778788U, 0x7877778877777777U,
  0x7877787787787787U, 0x8778878877877788U, 0x7767888878777978U, 0x7788887877777788U,
  0x798778a899788673U, 0x7787668777758767U, 0x7b67767767a85887U, 0x9689758888b77676U,
  0x6686a96879a66b58U, 0x8a797c5a7a98a867U, 0x7877879767b78887U, 0x7688797887679478U,
  0x8998868977887679U, 0x8579897689757697U, 0x78687c6987797867U, 0x5688565787797a66U,
  0x9779576676889766U, 0x87787a697a977896U, 0x87579656776b8859U, 0x7569886a89768bb6U,
  0x67678979a8797966U, 0x877867868877a879U, 0x7977979958a76876U, 0x9799867898a66686U,
  0x68768a6878976959U, 0x6989696a88979667U, 0x7887899967967886U, 0x76886a6688569687U,
  0x7898879987977778U, 0x8687a96778778685U, 0x68876a7998899768U, 0x6766655887777976U,
  0x9978677688798787U, 0x7767886969a69786U, 0x8877985878699869U, 0x5769988a88878896U,
  0x9987667556867689U, 0x7786976967785887U, 0x7689686598579689U, 0x5765788787589a79U,
  0x9878658786487596U, 0x7686859477685897U, 0x86667665a7588778U, 0x7867957967a96978U,
  0x8766785678688878U, 0x798756997678777aU, 0x9688848666656795U, 0x99889a9777887578U,
  0x6678998878677778U, 0x8896768686586859U, 0x8779679778957885U, 0x999667756679866aU,
  0x7686878767677975U, 0x9877477385787439U, 0x8997769899977799U, 0x6a77876899b977a6U,
  0x5869a6a676666a58U, 0x78a66b5669789567U, 0x9b76b77787877756U, 0x4668766784576578U,
  0x6978777874777469U, 0x7548797766864ab9U, 0x8b569c8878776b86U, 0x79787786875978a6U,
  0x76789796777a9969U, 0x878b9b6a57777778U, 0x7668c765868bb467U, 0x758a767959688aa7U,
  0x6a997677888876a9U, 0x56a7a79b6a968bb5U, 0x86578a6865797686U, 0x9578978878768948U,
  0xa8a6795667769688U, 0x6759768867888987U, 0x55766799776967a9U, 0xa88689995a889867U,
  0x869866876a789a77U, 0x68a988989889a546U, 0x86b7655686776588U, 0x8688778798a86859U,
  0x867a786986957678U, 0x77755367a7876597U, 0x9676479866675a87U, 0x7766976796869678U,
  0x7787888767777877U, 0x7768877888787987U, 0x8867676767778778U, 0x7788888778778678U,
  0x7767887777788887U, 0x8778888777788777U, 0x8778787787869777U, 0x7878768778878788U,
  0x7888877788877889U, 0x7798678878878678U, 0x7688878778777787U, 0x7877787887886878U,
  0x8877778887777678U, 0x8787878798886769U, 0x7788776787877877U, 0x8878678788887778U,
  0x7866899878889877U, 0x8968797888678978U, 0x8877766877777867U, 0x8798686777866677U,
  0x7778777888877878U, 0x8887887788878778U, 0x7788787788867877U, 0x8889688697789788U,
  0x68788878869778a8U, 0x8778867768767778U, 0x5687779869868778U, 0x7767766876776776U,
  0x8887699878688677U, 0x6776887779879967U, 0x6999666789887868U, 0x6778888778986777U,
  0x9899657667657697U, 0x7597647757975786U, 0x7779699798989698U, 0x77669889998a9788U,
  0x6786778655687875U, 0x6777796858798776U, 0x88669667a6878688U, 0x5656977867786757U,
  0x966566676758a758U, 0x5777597996986879U, 0x9886796786575896U, 0x78aa8897a9699988U,
  0x656a966885987a6aU, 0xaa87776886685589U, 0x9556787665779787U, 0x76977668776898a7U,
  0x77a9868698766687U, 0x769645a454977447U, 0x87a987a7a9b896a8U, 0x798898998a8977a8U,
  0x578789b566878976U, 0x7875694a57799676U, 0x9965b77875796877U, 0x5657896a55675757U,
  0x9886567956698568U, 0x67676b7876984896U, 0x9b468b6786675966U, 0x78a98796a86a79a8U,
  0x7559a86765989a58U, 0xa98b6b4957876597U, 0x9556b6975558a678U, 0x7786665a7847a9a5U,
  0x9566779765766875U, 0x9967467364696339U, 0x89a885a6aa969777U, 0x5a887967799a78b8U,
  0x575a96b886695a65U, 0x78a56b5669678458U, 0xbc67b66697979945U, 0x5658855884575697U,
  0x7967686784567378U, 0x6735596855974bc9U, 0x7b45ab8969686a85U, 0x7a6998a7784a67a6U,
  0x66869794687a995aU, 0x889c9d8a4867986aU, 0x7756c8668898b469U, 0x9798567959598a96U,
  0x9788767767667888U, 0x7786757766886777U, 0x679a789799879889U, 0x7877988898799887U,
  0x7788679776688795U, 0x5676777877788777U, 0x8866977796698778U, 0x6757877767887975U,
  0x7765876677679767U, 0x5876687986886888U, 0x8977897788786896U, 0x8889998779788888U,
  0x6778957897876a69U, 0x9998676867797779U, 0x8666888777779787U, 0x8897667877689787U,
  0x7787788768777877U, 0x6777977978877888U, 0x8677675776577878U, 0x7787777877677968U,
  0x8678867778677787U, 0x7667879688688976U, 0x8787677678788878U, 0x8877868878878789U,
  0x8877777678777988U, 0x8988768678878768U, 0x7688857877778887U, 0x8878887787987777U,
  0x8679779887877678U, 0x8787867697777778U, 0x8789679777876878U, 0x7887778688887668U,
  0x7676988978888876U, 0x9958787687779669U, 0x8966768888867877U, 0x6888788766985696U,
  0x7668988888975959U, 0x8987897989778568U, 0x9978887867967965U, 0x6789776796667679U,
  0x6978888975876688U, 0x9768766757756897U, 0x6877988979888a68U, 0x6887758776575896U,
  0x9876799678798786U, 0x6658997968977867U, 0x7989966688888669U, 0x866988787a787877U,
  0x7777887797778777U, 0x8787788777777778U, 0x7787878777777777U, 0x7887887776877777U,
  0x7777878887887887U, 0x7877877878778787U, 0x7877787867777787U, 0x7877788788877778U,
  0x8787767888877777U, 0x7777877787877987U, 0x7877898787878778U, 0x8888778777778778U,
  0x8778777777766877U, 0x8778778878887777U, 0x8777887777778897U, 0x7788977777888787U,
  0xa788667766857689U, 0x6687658474884346U, 0x75b978a6a987a786U, 0x4a658968787a99a9U,
  0x778858a775698695U, 0x7666866676786698U, 0x9887a66697689689U, 0x6776866966895966U,
  0x9756765677677457U, 0x5a566a9a857a58a9U, 0x9a498a7787777896U, 0x988999a8795997a9U,
  0x5678b77686877b78U, 0xaa9b6b6878586669U, 0x7656b8988785a5a6U, 0xaaa6686957488688U,
  0x7777887767778777U, 0x8887966988777997U, 0x7779876767669888U, 0x9687878887777768U,
  0x8787776788688787U, 0x7778889789777888U, 0x6677678787777788U, 0x8877969788778788U,
  0x7778888878887988U, 0x7798677768778769U, 0x7698758778987787U, 0x7777877788977867U,
  0x7777578876888678U, 0x8686868798777768U, 0x7788678887886887U, 0x8778677787877778U,
  0x7787878867777877U, 0x7787987777777878U, 0x8777777787778888U, 0x8878677787778778U,
  0x8787868777687776U, 0x7878878677867977U, 0x7777687788878777U, 0x8788868778787777U,
  0x8877787688778878U, 0x6788678678877778U, 0x7688968878887887U, 0x8778887776876777U,
  0x7788768878778877U, 0x8777878787877778U, 0x8778778787876777U, 0x7787778778887778U,
  0x48898687997a6785U, 0x759558855794a557U, 0xa986887868985689U, 0x988884b779b78798U,
  0x8a8697768a838969U, 0x99875a596959a775U, 0x8a66a79967985778U, 0x457789a876679678U,
  0x77995798669a8698U, 0x846798857aa65996U, 0x88566c6876768979U, 0x7886564596687778U,
  0x9658597868998766U, 0x65777a6776866796U, 0x8879a465565ba668U, 0x44488766a78789b7U,
  0x7878877688888877U, 0x8788887878777877U, 0x8788687677768789U, 0x7778886787888788U,
  0x8778987878787777U, 0x8777779777786878U, 0x7788787777778877U, 0x8777778877888788U,
  0x7878887877777877U, 0x8888777788678778U, 0x8788878878878877U, 0x8778787877788777U,
  0x8788788778878788U, 0x7778878688777788U, 0x7788778888787787U, 0x7778778678777877U,
  0x9666787878879867U, 0x8969676384686338U, 0x58a7779679889966U, 0x7a777978789776b7U,
  0x55876899689a6877U, 0x6798976797966468U, 0x7b98a87587868766U, 0x6987874685586776U,
  0x7787977795777377U, 0x88488869865758b7U, 0x7a398a888889aa97U, 0x76778799783688a7U,
  0x7888a775977a6987U, 0x888b8c7b58698888U, 0x8878c9697967a588U, 0x9988998968677887U,
  0x7877788999888776U, 0x7888687788759678U, 0x8a75877968a76777U, 0x9789767868966676U,
  0x5686a87879967a69U, 0x89798a698997a667U, 0x6888789867967866U, 0x8799697888568588U,
  0x79a9889877966687U, 0x9578996578677786U, 0x79786b7879789869U, 0x6676665877667a76U,
  0x9878687677789786U, 0x6669897969977796U, 0x7978976787798769U, 0x5768aa7a99968996U,
  0x7577a88988898955U, 0x995978779667866aU, 0x8a86868969866968U, 0x7998778677976595U,
  0x6769979899975959U, 0x789789788a878667U, 0x8978988969958865U, 0x679a686696677689U,
  0x798987887597769aU, 0x9768966667667996U, 0x7767978969998968U, 0x6877768866776785U,
  0x99977886886a8786U, 0x7768a98968968876U, 0x6989866699998668U, 0x977a98887a777886U,
  0x8778877788887887U, 0x7788587676888667U, 0x6787888777977787U, 0x7878788878887687U,
  0x6877788787887878U, 0x7898776887878678U, 0x7987877877777777U, 0x7888797897668777U,
  0x8888879877877678U, 0x8877986787786886U, 0x6968897877888867U, 0x7777768888677786U,
  0x8878876787887877U, 0x7989787877887887U, 0x7877887888688788U, 0x6778887876677885U,
  0x7787789877666765U, 0x8867568465867448U, 0x8998879799978797U, 0x697797888aa967a8U,
  0x6869a6a877876a76U, 0x78966a5869777676U, 0x8a77a67686888867U, 0x6678867885666577U,
  0x8877667875789569U, 0x65576a68769759a8U, 0x7a559c6868677987U, 0x7979777887696996U,
  0x7678968767788958U, 0x887a8b5857877867U, 0x8667b866878aa588U, 0x8688677978689aa8U,
  0x78a9757897677687U, 0x65a6658667a67665U, 0x6878799797887598U, 0x7887978999799889U,
  0x6696798557868887U, 0x67786868679a9775U, 0x7775977776796699U, 0x7675886866687756U,
  0xb687668757789666U, 0x66787a88a7796787U, 0xa8887a56a6687786U, 0x77a96877a868a888U,
  0x7679866785a77978U, 0x9889696978895588U, 0x9656988755588878U, 0x6777876986678786U,
  0x7777777777777778U, 0x8877987878876998U, 0x8777686786777778U, 0x8777978887688876U,
  0x8788877878677786U, 0x8778979687778787U, 0x7767777686787788U, 0x8788868778888877U,
  0x7778877788777987U, 0x7889767878878769U, 0x7787757777777887U, 0x9878787886867777U,
  0x7787678877777687U, 0x7687757698877778U, 0x7688568887876867U, 0x8887778788888778U,
  0x7aa8667888888687U, 0x75a7a78b7ba58bc6U, 0x7747796755797798U, 0xa487968887779948U,
  0xa796885569759787U, 0x775a789877798b95U, 0x5476579877897699U, 0x978698a76a989857U,
  0x969776866a797c76U, 0x67b967878a88b647U, 0x95c7655586677588U, 0x96a9775798b88849U,
  0x976a576a65958677U, 0x67846286b7885587U, 0x8668378765785b76U, 0x67868778a6a79778U,
  0x7878787999788799U, 0x7787b96b8a898ab7U, 0x7556885865678776U, 0x8576788675458757U,
  0x9886595879888598U, 0x866994b895886a98U, 0x5586489779687699U, 0xa98868878a979988U,
  0x869897868a977a85U, 0x8aa895889968a646U, 0x84a8528787889488U, 0x9566888877a58659U,
  0x89876879988566a6U, 0x66747496a8788897U, 0x79a8489988644a86U, 0x7976898787976549U,
  0x9787768866867778U, 0x7788568576887656U, 0x777987a698978787U, 0x7886887889899879U,
  0x5687779666787885U, 0x6776886778887677U, 0x8867a76797778876U, 0x6767766877576876U,
  0x8765866876568668U, 0x67675a7976887999U, 0x9a788b68887a7796U, 0x7788877889588887U,
  0x776787767688897aU, 0x9979797968787779U, 0x876598688588a787U, 0x7799688a78688896U,
  0x87a9657686666599U, 0x65a5778766976676U, 0x76896788a8899597U, 0x6968989998698999U,
  0x8787779566679796U, 0x8876676856697797U, 0x88758778866a7699U, 0x9677987a58976866U,
  0x9665576768598666U, 0x68776a9985998777U, 0x9877866687666576U, 0x9899988698897799U,
  0x866897587696896aU, 0x9989577796775688U, 0x9566989865667796U, 0x8797777776689888U,
  0x5978678789797787U, 0x7778988b8c869cb7U, 0x7838894956596777U, 0xb589868776856747U,
  0x8786883789867669U, 0x677977a888988968U, 0x5577479967877787U, 0xa79789a88a76a787U,
  0x87a877a879888a87U, 0x86a996767a86a655U, 0x74c7748996777679U, 0x6688564788a67848U,
  0xa878476878977496U, 0x6574648688877886U, 0x9788387777875a68U, 0x5758988798b68657U,
  0x8776889887977787U, 0x8787779775887667U, 0x8988878887978886U, 0x7978886879887898U,
  0x6777889766987877U, 0x7977785877878787U, 0x8888987877889887U, 0x7678776876567778U,
  0x8767767877777678U, 0x87678a7876778896U, 0x89678a6778897877U, 0x7887869789687997U,
  0x7778987776788867U, 0x7869696868867679U, 0x7776877777788778U, 0x8886788978678896U,
  0x7779878788777877U, 0x7878578687887678U, 0x8877889788977877U, 0x6887887778878787U,
  0x7787789886888887U, 0x7788776778877678U, 0x7878878878777877U, 0x7778797776676787U,
  0x7778787987887687U, 0x8667997887787797U, 0x7877797786888767U, 0x7777868787679898U,
  0x7777988787878977U, 0x8868797978877787U, 0x8887987778688688U, 0x7888877868777897U,
  0x7878888988888856U, 0x9788577687779658U, 0x7887879978986877U, 0x7897878787977586U,
  0x6577797878976868U, 0x6878887999978567U, 0x7997978877a67876U, 0x6777696676568687U,
  0x8888779886879688U, 0x6768986688776897U, 0x78778a7987898978U, 0x5677666787579886U,
  0x8877776688797887U, 0x8869897969878787U, 0x7887985877589778U, 0x685a878898777886U,
  0x7778787787787787U, 0x7788687787677677U, 0x7777778878887767U, 0x8777787778777889U,
  0x7886787887988789U, 0x8788877896777778U, 0x7878888878777688U, 0x8786797787766887U,
  0x8678887778988676U, 0x7767987896798787U, 0x7878697777778778U, 0x8787777768777898U,
  0x8778786787787897U, 0x6878787867888887U, 0x8987987888688777U, 0x8867977866867787U,
  0x8877787877677777U, 0x7887887887888978U, 0x8877776687777887U, 0x8887877787788877U,
  0x8778767788777878U, 0x8787777787878777U, 0x7878787778878788U, 0x8887868877888787U,
  0x7787888688777878U, 0x7797778777787778U, 0x8788768768777877U, 0x7887877788677778U,
  0x8777689777777786U, 0x8777878787677878U, 0x7787887788877889U, 0x8787676777877767U,
  0x7777787778788788U, 0x8877986969776998U, 0x8777775877678789U, 0x8677778787677868U,
  0x9779766877668787U, 0x8878978688666887U, 0x8767676788877878U, 0x9868768768988887U,
  0x8877777778887978U, 0x8898668778879778U, 0x7598748777777777U, 0x7778787887986668U,
  0x8788788878767788U, 0x7676778697778777U, 0x7788678788986767U, 0x7687777688877668U,
  0x6677888788796874U, 0xa777578576768549U, 0x9a96968888986878U, 0x7889857889b86696U,
  0x7869a79788747b48U, 0x89976b587b779667U, 0x8a68988876a67856U, 0x5679778786667488U,
  0x7979888865887578U, 0x64577976789569a8U, 0x79658c7869877a68U, 0x6988666686686895U,
  0x98787896877a9767U, 0x77799b6868877866U, 0x7778a655778bb568U, 0x6569667689788ab7U,
  0x6887777678686896U, 0x7695888b7b969bb7U, 0x8947686778696688U, 0xa669959788776848U,
  0x9887a85567658968U, 0x78886a9769699997U, 0x7666568887986677U, 0x7676989779889577U,
  0x7788678868798b87U, 0x86a8868689979858U, 0x74b6656776667687U, 0x8878666687a87757U,
  0x8689466988868568U, 0x7683738597786787U, 0x8678376665696978U, 0x6568777797a88878U,
  0x6757988888898968U, 0x8858996a9a579a98U, 0x8765765867676868U, 0x9688678685666766U,
  0x8979776999876679U, 0x888796a798677876U, 0x7778699869868967U, 0x8989688698879799U,
  0x6999898898986a99U, 0x9998947669768867U, 0x5598849969978879U, 0x7755776867967866U,
  0x9986698779678596U, 0x565495a778889986U, 0x69a9568889866867U, 0x6869786599a66768U,
  0x8767797888878888U, 0x7878987777787888U, 0x8776766887678777U, 0x7778687777777768U,
  0x8677877788677778U, 0x8787888778777887U, 0x8787668797877778U, 0x7787868778787877U,
  0x7777877788778887U, 0x8888778778777778U, 0x8788867777887876U, 0x7877786878877877U,
  0x7788788777778787U, 0x8777877788777777U, 0x7787677687776767U, 0x7777777777888768U,
  0x7778687886888778U, 0x7778578676888657U, 0x6797889878986676U, 0x8987777878888797U,
  0x6777898867887878U, 0x7877786877888668U, 0x7987978886877887U, 0x6777796686676786U,
  0x7688777766877676U, 0x77669a6877786696U, 0x79676b7887897878U, 0x7687768888577898U,
  0x7687877697788866U, 0x8869798968786987U, 0x786699777769a687U, 0x8778888977778896U,
  0x9585878866676875U, 0x9977368172787107U, 0x99a986b8aba67888U, 0x4c87787789ba77c7U,
  0x466a96b787787a66U, 0x89a57b476a679378U, 0xac78d76686978856U, 0x4668765773575588U,
  0x7966797884677279U, 0x65266b6875873bc9U, 0x7c379c8868787b85U, 0x6a789797682968c7U,
  0x7767a895787a8a59U, 0x997c8d7a48788868U, 0x7657f765878ac368U, 0x7598678758498aa7U,
  0x7869887897778778U, 0x6888578676888667U, 0x7886889879987776U, 0x7888788778978798U,
  0x5887898778988879U, 0x7887776887987678U, 0x8878998877777687U, 0x7797897787667877U,
  0x8888777977976576U, 0x8766996786787896U, 0x79677a7887898878U, 0x6777868777677889U,
  0x7787886788788877U, 0x6869787967878897U, 0x9877977878778678U, 0x6978888977787896U,
  0x8566a98978888955U, 0xa94868758668865aU, 0x9997858889867967U, 0x6988787669986597U,
  0x666a978898984958U, 0x99a689778a768468U, 0x9a79987778a58955U, 0x57796767a5676589U,
  0x6a7898689576759aU, 0x8657865657755aa7U, 0x6867988a6a888977U, 0x68777687666769a5U,
  0x7986889579699887U, 0x7768a98a59869868U, 0x6879a66688999569U, 0x8789779869776986U,
  0x8687778798788877U, 0x8767677687779667U, 0x7787889888887876U, 0x7978788878877798U,
  0x6787778887987888U, 0x6778776888887778U, 0x8887988977777778U, 0x7787697786677786U,
  0x8887688877878686U, 0x8766987788686796U, 0x8977797888787777U, 0x7786678778678797U,
  0x7877897777888776U, 0x6868797967878786U, 0x8886977988779788U, 0x7877877867777886U,
  0x88886655677576aaU, 0x55a7977978986895U, 0x65786a7786688595U, 0x865687789867a969U,
  0x989568776758a5a7U, 0x76688687759889a8U, 0x65976876985986aaU, 0x987597975a997a66U,
  0x8576777679788975U, 0x68987999987a9568U, 0x9788566495676687U, 0x968989788998a67aU,
  0x6789966987956888U, 0x88a75675a7697688U, 0x86767999666569a5U, 0x7885787884787579U,
  0x6868786798989789U, 0x6888b96b9a788bb6U, 0x6557895866586867U, 0x9587778675468857U,
  0x9896585888898499U, 0x7669a4b795976979U, 0x649758887a6877a8U, 0xa99778967b879a87U,
  0x768988878a987a95U, 0xaab6848789689556U, 0x74a9628787789479U, 0x7666777868a59658U,
  0x99976778887566a6U, 0x567463a797789896U, 0x8aa7388a78744a87U, 0x7a77998887977547U,
  0x97a7667676658588U, 0x6697649575986556U, 0x878a78a7a7989796U, 0x6986888979999999U,
  0x668688a656679886U, 0x6777685766887787U, 0x88879667966a8688U, 0x7666976968685866U,
  0x9665756667668556U, 0x55776b8996896779U, 0xaa578b5685786886U, 0x879a879899689799U,
  0x6669a6688598796aU, 0x9a8b596987676569U, 0x9555b88775889787U, 0x8696677a766798a7U,
  0x7755888878879868U, 0x9a68996b9a578aa8U, 0x7775775666477957U, 0x9577577565668666U,
  0xa878655998786688U, 0x8787b7b598666878U, 0x769948777a769877U, 0x9a787796889898a9U,
  0x5969988898776a98U, 0x99a7747768578858U, 0x649a83977987a888U, 0x6856796957a57767U,
  0x899668987a6877a6U, 0x767584a699779968U, 0x69a847899a966978U, 0x8a88799589975658U,
  0x7887778787788877U, 0x7787678777888887U, 0x7776878887877878U, 0x7787787887777778U,
  0x7778777876687889U, 0x8777887877778778U, 0x8886977877878977U, 0x7777887878877777U,
  0x8789777888788677U, 0x8778887887678777U, 0x8888887788877888U, 0x7788787777777878U,
  0x7768787787787777U, 0x8778877788878788U, 0x7887787888788787U, 0x7786888778777887U,
  0x7877777868786777U, 0x7878867878877887U, 0x8777776776687789U, 0x7677878877778877U,
  0x9777777677687677U, 0x8777879788777887U, 0x6678677797778788U, 0x9777868778987888U,
  0x8887786778787978U, 0x7888668878878768U, 0x7798757778877878U, 0x8878897877878768U,
  0x7878678878767768U, 0x8786767787777768U, 0x6679677787886777U, 0x7777677687987768U,
  0x7887787778767777U, 0x7768986889777899U, 0x8788676676688788U, 0x8777867876577767U,
  0x9778776776678787U, 0x7877779688788876U, 0x7777677788788978U, 0x7777877778888888U,
  0x7887777778888888U, 0x7888667888869768U, 0x7697857777767887U, 0x8778786768877867U,
  0x7778778877887787U, 0x7786768777677777U, 0x8788677777876887U, 0x7788678788888669U,
  0x8788676667777889U, 0x6788887877787887U, 0x6679678688677878U, 0x8876887887689878U,
  0x8887677877689697U, 0x7577858675776898U, 0x7777767798688788U, 0x8876868677997867U,
  0x7876876588688776U, 0x6977779887798778U, 0x7689667696767797U, 0x87788a887877a679U,
  0x7898777788876889U, 0x8897788776587878U, 0x878779a898867895U, 0x7986768686787669U,
  0x58888788b97a7775U, 0x877668976895a877U, 0x9a66888978975877U, 0x9789649778a77777U,
  0x6796b86679956a6aU, 0x9a896a5a7a88a866U, 0x687788aa58965776U, 0x76787a7867669588U,
  0x78a967a867997798U, 0x9568985479858775U, 0x78867b8967798868U, 0x6676455577676a67U,
  0xa757576758999676U, 0x66777979789778a5U, 0x78789456586a8859U, 0x5649976898858a96U,
  0x8778887788788788U, 0x8877687878797777U, 0x7677989878888667U, 0x8888778768878777U,
  0x6877787877888778U, 0x6676777897877679U, 0x7887888968797788U, 0x7797798777678988U,
  0x7787788887888777U, 0x8875998877787785U, 0x6987797787779779U, 0x8777877777578777U,
  0x8877777787787876U, 0x8877798978878886U, 0x7976897888779786U, 0x7867877876778887U,
  0x6766897979989876U, 0x8969797798677978U, 0x7876766868776867U, 0x8888777766956776U,
  0x7877976989977868U, 0x8878878799968768U, 0x8798798779868976U, 0x8898678598769699U,
  0x6889998887976788U, 0x9788867668767878U, 0x669977886897a878U, 0x7765777876766966U,
  0x8986789678687686U, 0x5667977778778977U, 0x5989776789786869U, 0x7768689789986777U,
  0x9888767666767688U, 0x7777967877795896U, 0x7678677698889688U, 0x7767888777689979U,
  0x8888868786578596U, 0x8676878677776998U, 0x8677776697698688U, 0x8866769867986877U,
  0x8775776668578877U, 0x6998678987888869U, 0x8687767667666796U, 0x9889899788887778U,
  0x6778877878867878U, 0x8797668696697779U, 0x8777779776977896U, 0x7896677666788769U,
  0x6657998989899968U, 0x89588a7797689778U, 0x8885966978865967U, 0x8799677666766776U,
  0x88698878aa97677aU, 0x8999778898868778U, 0x779969a858877877U, 0x88996977977787a9U,
  0x6889889898a677a7U, 0xa777a66568767786U, 0x567876a878979769U, 0x6765677866875876U,
  0x9985698779677685U, 0x4567988676969976U, 0x6a98867889887779U, 0x6768988669966767U,
  0x6678888987788a56U, 0x988867778877a779U, 0x7996978858876967U, 0x8898777788a76585U,
  0x7667897978a8586aU, 0x8898778888878668U, 0x7889898878958866U, 0x7798687697568698U,
  0x698a788986977778U, 0x8676986679766887U, 0x6778898988988878U, 0x6777767886688775U,
  0x7986778688798786U, 0x7667996869989887U, 0x7989885688688679U, 0x676a898989976877U,
  0x8698887788777875U, 0x7788568466958549U, 0x7987779889a86697U, 0x8977869899b77697U,
  0x6787a89668a67a68U, 0x78877a587999a676U, 0x9976a78886977777U, 0x5678787975677676U,
  0x8778677865897667U, 0x64577a7888776897U, 0x89577c7876787978U, 0x7798676797597887U,
  0x87788667868a7767U, 0x887a7a5858886687U, 0x9667b765676ba678U, 0x75787879977799b7U,
  0x8886777656867689U, 0x6777a67967795886U, 0x7588676597589689U, 0x6755897777587a78U,
  0xa8696587774895a5U, 0x7676768566676aa8U, 0x756767659759978aU, 0x8867949868aa6a79U,
  0x7756875598686867U, 0x699956997799876bU, 0x7687848658756796U, 0xa8789a8786987789U,
  0x6778879977756879U, 0x989775859656785aU, 0x668967a887966675U, 0x999656757768855aU,
  0x8887766668777798U, 0x7787877878788777U, 0x6678778677778679U, 0x7866787787789878U,
  0x8898677777688697U, 0x7677867677777897U, 0x8677767698687688U, 0x8777877777997987U,
  0x7676877679789867U, 0x6987777887898789U, 0x7877777677778897U, 0x8878899778779679U,
  0x7877877798866878U, 0x8887778787698778U, 0x9887899977868786U, 0x8886768677878668U,
  0x9888676766858788U, 0x6698558586986565U, 0x679a89a688978786U, 0x798589897889a899U,
  0x6777689865688785U, 0x5767886765978687U, 0x8777977696588698U, 0x6766876867685765U,
  0x9676776677679657U, 0x67666a7a867a7799U, 0x9a688b5697697697U, 0x7689a8988969a899U,
  0x6768958886987979U, 0xaa89698978797679U, 0x9664a9788777a897U, 0x8897777a76678796U,
  0x6877888999797876U, 0x887868878877a678U, 0x8976889978986878U, 0x979a758877a67576U,
  0x5676997979976a69U, 0x997979799886a766U, 0x7888889867968986U, 0x7787697788569677U,
  0x799987a886967677U, 0x9578996668767786U, 0x68888a8988799869U, 0x6777555877678977U,
  0x9867688686898686U, 0x7668796968978796U, 0x88779867776a8869U, 0x7759998988967986U,
  0x7777677777777677U, 0x7877987878677788U, 0x9867685686677779U, 0x7777777897676987U,
  0x9888767778567877U, 0x7778768678688988U, 0x8677677687787788U, 0x9877958978987778U,
  0x6877778777877968U, 0x7889669778878878U, 0x8687757777657786U, 0x8779798777976767U,
  0x7778787977768878U, 0x8787769697787777U, 0x8889678777875887U, 0x8777677577887768U,
  0x7788766676768789U, 0x7877776877776877U, 0x6589788697679778U, 0x7676798777689879U,
  0x8978577777678696U, 0x7577969676786798U, 0x8777767688588789U, 0x7777877767897a76U,
  0x7776787688778778U, 0x7977688886798778U, 0x8888788687776896U, 0x9878998779889788U,
  0x7888867888777888U, 0x8798778686598879U, 0x8886899977867896U, 0x8886668766788669U,
  0x998767766786878aU, 0x7789a78a797859a6U, 0x7578686686587867U, 0x6676786776589967U,
  0x9877487786699596U, 0x765895a785775999U, 0x657767689958869aU, 0x988697887a997977U,
  0x8676866679777a87U, 0x6aa7758987799659U, 0x9699738687677687U, 0x9777998978978579U,
  0x6787778888756897U, 0x8886749697687768U, 0x789857a977945886U, 0x9996688686777659U,
  0x9565695755879969U, 0x79784753a36a6328U, 0x56b769a79a579866U, 0x4c766b75767976c8U,
  0x787a68ba879a8687U, 0x75a5a78698865689U, 0xaa9aa7668a789568U, 0x5986865584885996U,
  0x5667985695858376U, 0x89449879955849b9U, 0x6b3869a788878987U, 0x895798a96846a5b8U,
  0x69a6b686aa595aa6U, 0x8a8b7ca957699969U, 0x6987ca888987b496U, 0x9997889647595658U,
  0x6566a98977696a44U, 0xa95746748578954aU, 0x9a9686998a96697aU, 0x7a9a778589b946a6U,
  0x567ab69878865b57U, 0x89a66b577b569568U, 0xab78a76888967944U, 0x476a6666a4556599U,
  0x6969898a84776599U, 0x8446895668845bb9U, 0x5a579c9a59977a57U, 0x6957867765595994U,
  0x99877995896aa867U, 0x876aab7a47879a78U, 0x6868b866788ab569U, 0x757967885a6a7aa6U,
  0x7887889988898776U, 0x8878888886878777U, 0x8976877887977775U, 0x8788777878986687U,
  0x7777987778977868U, 0x7987697989878767U, 0x8877888867977977U, 0x7778787988767678U,
  0x7889778977776787U, 0x8788887777868786U, 0x7877798877788868U, 0x7876767887687886U,
  0x7678787857788776U, 0x7757886878967787U, 0x8778866678797779U, 0x7778787778987886U,
  0x6867898889799888U, 0x7877a97b8b75abb7U, 0x6746774856576868U, 0xa579667775657647U,
  0x988778488a77867aU, 0x877986a887867a88U, 0x5598499867777777U, 0x989779968989a788U,
  0x7899889889a76a87U, 0x97a895868a77a656U, 0x64b864978777967aU, 0x7665685878a56767U,
  0x9887488888766495U, 0x4574849697889885U, 0x7999487788775a77U, 0x6868998697b67758U,
  0x76569a8878987888U, 0x8a58aa6988588989U, 0x9766755878577957U, 0x7779576666575876U,
  0x985a8469a9686768U, 0xa787969688557788U, 0x7789696758879967U, 0x887a659797978699U,
  0x5a799a77a7865898U, 0x9798758758768888U, 0x568794b84aa59957U, 0x8856787956965786U,
  0x799589a769578688U, 0x567796959686aa67U, 0x6898577699a76678U, 0x8787878469986758U,
  0x677a7779a8898866U, 0x869748868776b658U, 0x788698a969976777U, 0x9899658677a67597U,
  0x67858a8889b6786aU, 0x8989897a89a89578U, 0x898798a948976687U, 0x66967b6796557787U,
  0x77aa88a976a88596U, 0x9566a85798677794U, 0x79786b8986799859U, 0x5666556777568988U,
  0xa887786678898885U, 0x67686a7a689898b5U, 0x8987975778599789U, 0x5758a97987757996U,
  0x9898658676666699U, 0x6686759766986776U, 0x77896997969897a7U, 0x6877998999699a79U,
  0x7877779655589795U, 0x7767676756888887U, 0x7676866686698689U, 0x7676977857976847U,
  0x9665566658687766U, 0x5878696a97998778U, 0xa976775696686675U, 0x98a99887a8797878U,
  0x6579a66875968a7aU, 0xaa99675886675578U, 0x9555988774767796U, 0x879688676668a677U,
  0x7a89666578777699U, 0x55a6978a899779a5U, 0x65676a6765798597U, 0x856687998766aa59U,
  0x999559565768a6a7U, 0x7659767775887aa8U, 0x54855787865a76aaU, 0x868598a85a999a66U,
  0x8587677679788a65U, 0x78987997a88a9547U, 0x9699686585766588U, 0xa677787798a6975bU,
  0x8688686a87956688U, 0x78965676a7796687U, 0x978769a866656a95U, 0x6875876794879569U,
  0x8656aa9867878977U, 0x8a589a7888587899U, 0x9766755977568858U, 0x6789586666675876U,
  0xa96a7479a8886668U, 0xa787879689557889U, 0x787a586768868a67U, 0x8889658698a687a9U,
  0x49689a77977758a9U, 0x9989857758768778U, 0x557874b849959869U, 0x8756797866965675U,
  0x898579a759668686U, 0x567796958785aa78U, 0x689966879a966767U, 0x8888788569986758U,
  0x5877788768877787U, 0x7788987878767998U, 0x7787777777687888U, 0x8676887878777876U,
  0x9768776678678787U, 0x8778779878777887U, 0x7677777797877887U, 0x8777868778889778U,
  0x7866788788777978U, 0x7788668869778869U, 0x7588868777777787U, 0x9788886777877778U,
  0x8688778787777687U, 0x8886867787777878U, 0x7788677676866976U, 0x8887678777878769U,
  0x6666999998798856U, 0x995768878667866aU, 0xa986858879876978U, 0x6899778778984595U,
  0x6779978899975858U, 0x899769788a668567U, 0x9978988767958955U, 0x677a7867a5657689U,
  0x6979888986877699U, 0x87678666587479a7U, 0x6767979a6a877968U, 0x6876757677675895U,
  0x8877899568799887U, 0x6657a97968968876U, 0x7879855698798669U, 0x866997877a778886U,
  0x7987897777787999U, 0x5777a86c8b777cc7U, 0x8648785866588688U, 0x8487787686667947U,
  0xa978764897569697U, 0x8668769677678b97U, 0x647848778859688aU, 0xa77867b67aa79988U,
  0x766888788a888c97U, 0x88c876988998b638U, 0x74c6648667867578U, 0xa876887677c77649U,
  0x8896698b89758577U, 0x77748283b6788977U, 0x679828a687764a86U, 0x5776778596986659U,
  0x6877878888889886U, 0x8868897887668987U, 0x8865776867676877U, 0x8778667767876776U,
  0x8777876899877869U, 0x9889788898777877U, 0x6697798868876877U, 0x8989778788768789U,
  0x7889888877967897U, 0xa788967569679776U, 0x6688778768779779U, 0x8675766875956867U,
  0x8886698868778675U, 0x5667878788969788U, 0x6899676788786868U, 0x7768997798978777U,
  0x8576999987888855U, 0xaa4956758656765aU, 0x9a96848999968a68U, 0x6888777777a95596U,
  0x5558959898874a57U, 0x8996897789778568U, 0x9a79977877959954U, 0x6879675795658599U,
  0x6a7898888576559aU, 0x87587857577559a7U, 0x6957a88a6a888a67U, 0x59676689665869a5U,
  0x78868894785a9977U, 0x7879aa7959859867U, 0x7879a75698999569U, 0x867a78897a686876U,
  0x7867887789888877U, 0x8888687778788778U, 0x7788899778888766U, 0x8877777877777777U,
  0x6787788787878778U, 0x7887886876977678U, 0x8877899877687888U, 0x7797697788678876U,
  0x7688888877877776U, 0x8777998897797786U, 0x7977698697789778U, 0x7676878778667778U,
  0x8887887788788877U, 0x7878688866878888U, 0x7887887878779887U, 0x7787878887877887U,
  0x8898767887676686U, 0x859656a565977446U, 0x888988a788a885a6U, 0x7989979a8a997999U,
  0x5686999566878977U, 0x8996594a5778a666U, 0x8a56b87985887787U, 0x5667886a76576757U,
  0x9867567867688568U, 0x66577b68869868a7U, 0x9a558c5786786986U, 0x77a98686a75a8998U,
  0x7459876675978959U, 0x987a7a5958876597U, 0x8546b7766559a678U, 0x7697776a775798a6U,
  0x5a8787788a897787U, 0x7777a98c6b858cc7U, 0xa957774846886889U, 0xa479748787756846U,
  0x9886a74789758878U, 0x8868787879789a76U, 0x6466579867876788U, 0x968879a78a77b778U,
  0x88a8789979887b97U, 0x86b886867b77a637U, 0x83c6647877867579U, 0x7787665787a86956U,
  0xa768488978859476U, 0x6573826697977796U, 0x7788367678675a67U, 0x56578867a8b69788U,
  0x779866556676788aU, 0x6697867876995797U, 0x6599697598589798U, 0x686599887768a988U,
  0x8a98577777689596U, 0x65758596667869a7U, 0x9867766697598789U, 0x8876868868a97976U,
  0x866877556879a977U, 0x698667a8a7697769U, 0x87876676968677a7U, 0x99898a967987a689U,
  0x5688977997865888U, 0x999776878659877aU, 0x9778599876666795U, 0x889656766569857aU,
  0x98a8657686666688U, 0x7597648566a67558U, 0x78887897989876b8U, 0x7867a89aaa798988U,
  0x5786888646668877U, 0x7987685857899666U, 0x8966976794898677U, 0x6567a76767776746U,
  0xa777657757699647U, 0x55686b7897876788U, 0xb9667a5796686786U, 0x87aa7786b8699988U,
  0x767b865794987959U, 0xa988695978795498U, 0x9447967664689778U, 0x778777798758a997U,
  0x8566787877789777U, 0x7979566395697349U, 0x7997779789778867U, 0x69786866768886a8U,
  0x566987a888886877U, 0x7998897798877669U, 0x7a99986678868866U, 0x6988765595586788U,
  0x6867987795777377U, 0x87489867766759b8U, 0x7a498a8979888997U, 0x7766879878568696U,
  0x8896988688786987U, 0x887b8c8958789878U, 0x6877c96798889588U, 0x9787798978677887U,
  0x7a88768788786689U, 0x6797978b7b878bc6U, 0x8658886865896796U, 0xa588879888668748U,
  0xa886694778779589U, 0x7759758877797a87U, 0x63675698767877a9U, 0xa77689986b989857U,
  0x868776876a888b87U, 0x78b887878988a436U, 0x95b6746686787479U, 0x8688776698a87759U,
  0x767a676987857687U, 0x86746276b7776587U, 0x8777389866664a67U, 0x6787876887968678U,
  0x7868989997797776U, 0x8778798777868677U, 0x9a76877977876776U, 0x8788778778a86676U,
  0x8688998788977959U, 0x8978797889878877U, 0x8887698977a77876U, 0x7688788887757589U,
  0x7888778877786788U, 0x9678877678657887U, 0x7787887967787867U, 0x6776757785775977U,
  0x8778778877789766U, 0x6868776879967886U, 0x7778765778698759U, 0x7678896888867896U,
  0x6778887887787856U, 0x9677677787878868U, 0x7978878869877877U, 0x7898767877966576U,
  0x6887977778976869U, 0x6887797888887668U, 0x8877878878967876U, 0x6888797687568677U,
  0x7798879986988787U, 0x7666886788787897U, 0x67777a7998898778U, 0x6877777678689877U,
  0x9787787697798876U, 0x6767887968968886U, 0x7877785778799779U, 0x6779878979777886U,
  0x8787767655767689U, 0x7887976868895987U, 0x8689776598578697U, 0x6866998777599878U,
  0x9879558686578596U, 0x7566758567675997U, 0x9667775697588769U, 0x8777957867996977U,
  0x7755775677698988U, 0x6a77659886897769U, 0x87889487676667a6U, 0x99889a9779887698U,
  0x6698977877766979U, 0x8896768596576869U, 0x768867a876967695U, 0x888666756769766aU,
  0x8777775646757789U, 0x7787866786795788U, 0x769a787598589688U, 0x5964997877789987U,
  0x9988668776689585U, 0x65868594667768a7U, 0x97888765a7698789U, 0x6876858668a96986U,
  0x7756765686689977U, 0x698566999779678aU, 0x77686595877777a6U, 0x98889a8787889689U,
  0x6887978898775888U, 0x9897878786597769U, 0x7888699798876685U, 0xa7a6469666698569U,
  0x9898666666658777U, 0x7686657777885766U, 0x67897996a987a688U, 0x78659988987a8888U,
  0x7897868665678895U, 0x6677687666777677U, 0x8766865596788687U, 0x7766867767796866U,
  0x9665765667589757U, 0x58776a8a96987789U, 0x9967786787786795U, 0x7899a99799789778U,
  0x5689867797886a79U, 0xba98677877596679U, 0x8666798776878786U, 0x8796678986688788U,
  0x68a8877799686985U, 0x7695569565948558U, 0x9898689879a96698U, 0x7877959899c78697U,
  0x9875988758847a68U, 0x79866a597989a784U, 0x8a67a79876877778U, 0x5687898775787678U,
  0x87886698667a7678U, 0x74678976898859a7U, 0x89566c6786877987U, 0x6798675696588988U,
  0x9768677686998877U, 0x97897b5877986686U, 0x7668a566665ba668U, 0x55777889a77699b7U,
  0x7988878678797788U, 0x6877a99c7c768cc7U, 0x8747874855788788U, 0xa578767867667847U,
  0x9877963788768779U, 0x8859689777678a87U, 0x5468489977788899U, 0xa78878a87a87a879U,
  0x878878886a887b87U, 0x87b996957b77b538U, 0x83c7657768867579U, 0x8777775776b86848U,
  0x9766488978858477U, 0x56627275a6877776U, 0x6888278768774a67U, 0x7677976797b68788U,
  0x48689888997a8876U, 0x8877788a8a76aba8U, 0x8a55866a57875877U, 0x959a757877956665U,
  0x878797588b96685aU, 0x998969898a779767U, 0x688868a958a66666U, 0x879879889865a578U,
  0x68a978aa87987988U, 0x969897647a758874U, 0x65a7769868778859U, 0x6677555876877865U,
  0xa877487778799576U, 0x5554857878877885U, 0x7989565778797959U, 0x5649a97699a67876U,
  0x7877767677788788U, 0x6878987978777786U, 0x8678675796577877U, 0x7766878777678987U,
  0x9878888777678677U, 0x8677877779677887U, 0x7677687876668768U, 0x8767868878897878U,
  0x7877877788777788U, 0x7888768878888778U, 0x8677757767777777U, 0x9788798777986767U,
  0x7778879987866788U, 0x7797779697678777U, 0x7879778787775776U, 0x8776777688787769U,
  0x7686887777778777U, 0x7777877878778897U, 0x8878776777677888U, 0x7778877787777877U,
  0x7868777777778887U, 0x7788788787777867U, 0x7787777786888787U, 0x8888778878877877U,
  0x7877897787888878U, 0x8878777778878888U, 0x8788778877787878U, 0x8878878877877777U,
  0x7787788877888888U, 0x8887767788887878U, 0x7778777778877777U, 0x7777797788877778U,
  0x8888999987877777U, 0x8788669576867667U, 0x889896a988968886U, 0x7899777978887797U,
  0x6777799767977876U, 0x8877675986979777U, 0x8888987866878988U, 0x7778697787666777U,
  0x8778677968778677U, 0x8766897867786786U, 0x8957996787788867U, 0x7987868887687997U,
  0x8767987765889978U, 0x9869786878978667U, 0x7765977786889677U, 0x7889897988678885U,
  0x9899667676667687U, 0x7686758867975877U, 0x78796997978996a8U, 0x7767989a99798878U,
  0x6696768675678885U, 0x5886786757798777U, 0x8775965696877687U, 0x6756967968787756U,
  0x9766666757489867U, 0x5877597a96986889U, 0x9877785897585885U, 0x889a978799699878U,
  0x757a86678687796aU, 0xa997576877685579U, 0x9557888675678776U, 0x7697666876779897U,
  0x8a8956668885859bU, 0x4698b78b7a867ab5U, 0x65687a6665589675U, 0x966678797747a959U,
  0x988549677678a4a8U, 0x66499498849769a7U, 0x54975787785986baU, 0xa88599895b998a75U,
  0x958687766b868a55U, 0x6aa887a8986ab546U, 0x96a96355a5787498U, 0x9597797889a6976aU,
  0x8678765a75946798U, 0x78955475a7676587U, 0x968648aa77644995U, 0x7a95986795867559U,
  0x68679a7879889778U, 0x78788979aa789a97U, 0x6756975957785856U, 0x9598566765757656U,
  0x9777796a89988769U, 0x87798799a7866988U, 0x66995a9858867888U, 0x8998599699779797U,
  0x779a979898a66a97U, 0xa89995767a579766U, 0x569975887888a77aU, 0x7556676967967757U,
  0xa986698869776595U, 0x5565958688969886U, 0x6a9958888a666977U, 0x6867798788a66867U,
  0x56679a8888998887U, 0x79788a7997679888U, 0x9776885a67675957U, 0x8789576555666767U,
  0x897879699a88778aU, 0x88798798a7867868U, 0x67996a9959877887U, 0x88a86896987798a9U,
  0x688a999998a76897U, 0xa799957569689675U, 0x568776986897a66aU, 0x7664766956857767U,
  0x9a85898969678685U, 0x5567889686979a75U, 0x6aaa77899a876877U, 0x7768999668976768U,
  0x9787867656866799U, 0x7888876967896787U, 0x8589677698589788U, 0x6875787677599a78U,
  0x9979667685588595U, 0x7676768566684887U, 0x8766776697598789U, 0x8766958867a96977U,
  0x7756776678688778U, 0x6a77668996987879U, 0x8678848678766897U, 0x9988999787988688U,
  0x6688977878757868U, 0x8897869696586969U, 0x8687679877956695U, 0x9895667567698668U,
  0x6778788898777876U, 0x8788688677889768U, 0x8887978968977867U, 0x8798868778a67686U,
  0x76768a7978a77969U, 0x7887788989978768U, 0x7988989867967876U, 0x6888796687568787U,
  0x6898879986967776U, 0x8667996689877686U, 0x7878897878798868U, 0x6777557778677887U,
  0x8977676787789786U, 0x6767797869a87896U, 0x8777976688788879U, 0x6678988987867886U,
  0x6766998979899967U, 0x8969897888678779U, 0x7985767777786868U, 0x9787766667766686U,
  0x8768867899876969U, 0x8788888799857867U, 0x8999799769958966U, 0x78897686a7878689U,
  0x5989889896976898U, 0x9778957568667778U, 0x5878778978979978U, 0x7766677866866775U,
  0x8886699788687695U, 0x6676978778779977U, 0x6999777789888768U, 0x777999879a877867U,
  0x7666876967888878U, 0x7888996a99698aa8U, 0x6777785776587777U, 0x8676687775668677U,
  0x9887776988788679U, 0x667897a787876988U, 0x7588577789777689U, 0x9a87779787888898U,
  0x6787888798879a87U, 0x9897948798778757U, 0x6598759777778788U, 0x8866797767a69678U,
  0x7886778989776695U, 0x7675869697689988U, 0x8999577889876876U, 0x8888888686976658U,
  0x989a666776666889U, 0x7796767767878777U, 0x6689788588788788U, 0x6876978978699779U,
  0x6877689667687696U, 0x6777777866897787U, 0x8866867786796677U, 0x7766887856996976U,
  0x877676777668a767U, 0x5876688997897877U, 0x9877886797686796U, 0x888989868a79a887U,
  0x6768866796876879U, 0x9898677778697688U, 0x9676899876768796U, 0x7887767776678788U,
  0x9346997886878a68U, 0xaa595952934a622aU, 0x88b785a89a659958U, 0x5b996a55768866c7U,
  0x686b75a9a69a5777U, 0x97b597878866646aU, 0xac89b95769777946U, 0x597a5656a35658a9U,
  0x59799978a4865298U, 0xa926966765864bd7U, 0x4b3888a85a979a77U, 0x695596a8573666b6U,
  0x69a6a9a57a5b8986U, 0x786cada94787aa78U, 0x5a87d9679a87b388U, 0x9889879649596967U,
  0x9788767666757788U, 0x6686767667884766U, 0x779968a79988a697U, 0x6876998988798889U,
  0x6787669675888785U, 0x6776777766796788U, 0x8876965697698777U, 0x7766966877685857U,
  0x8666675677678667U, 0x5978697b86797888U, 0x9a77897686676686U, 0x788a989899688898U,
  0x5669966786976a69U, 0xaa89687867686779U, 0x96559a8776768696U, 0x97a6777877688898U,
  0x8876787767687778U, 0x8778887978777987U, 0x7877776787777778U, 0x8778787787677867U,
  0x9777776787767677U, 0x8777878777777897U, 0x7787678787777877U, 0x8887869878888888U,
  0x7877778888878887U, 0x7888668778878778U, 0x8687757678678886U, 0x8777777877977877U,
  0x7788878877877788U, 0x8777857787877877U, 0x8788678886877978U, 0x8777777888876678U,
  0x8a9a6656878875aaU, 0x45a59889699779a5U, 0x75686a6675797597U, 0x956697888866aa59U,
  0x989569665657b6a7U, 0x7759768875787a97U, 0x54866787875a76baU, 0xa785a89859898966U,
  0x9586777659788a76U, 0x78a87899998aa557U, 0xa6a8576594666597U, 0x96887a7698a79659U,
  0x8679675a86956788U, 0x68865586a6596688U, 0x9677599866665a86U, 0x7875786885869679U,
  0x8797767657877789U, 0x6878a66978875887U, 0x8688576597599789U, 0x6756888788588977U,
  0xa868657787479596U, 0x86567684786859a6U, 0x86876656a7587779U, 0x7868859968b96867U,
  0x8856786578687869U, 0x699856977787885aU, 0x9567848668657895U, 0x98888a9887a86687U,
  0x7678868978867767U, 0x8896859596577769U, 0x777a67a787865685U, 0x889756766878766aU,
  0x9899666766666687U, 0x7687759768975676U, 0x7889688698889699U, 0x7866988999899778U,
  0x6787768655688876U, 0x68776867587a8886U, 0x7765855695787687U, 0x6756867867786756U,
  0xa766665757589857U, 0x5778598a86986779U, 0x9967795787685885U, 0x88aa9886a9699988U,
  0x7569866786987a69U, 0xa988676877685578U, 0x9567797865888887U, 0x87987668865898a8U,
  0x7877877678987888U, 0x7867a87a68777997U, 0x9867866776578778U, 0x8688888677577877U,
  0x9887676768578776U, 0x7777879688677988U, 0x7777577788877888U, 0x9978768879a88888U,
  0x7868777788777987U, 0x7899667778868868U, 0x7697957867767787U, 0x8787787677986877U,
  0x7877789978767787U, 0x7797858697777777U, 0x6789668887876977U, 0x8777768688977768U,
  0x7788887887787776U, 0x7777678687788668U, 0x6788889878978777U, 0x6878887778977688U,
  0x6887788878978778U, 0x8887886886878678U, 0x8887998877877787U, 0x6787796787668787U,
  0x7788877876877787U, 0x8666997786777886U, 0x8877798877888868U, 0x6887768788687888U,
  0x7787887687877976U, 0x7879798957878886U, 0x8886897878678787U, 0x7887987877787887U,
  0x7677988897887975U, 0x9958787687679669U, 0x9986868988866777U, 0x7888788687975686U,
  0x6678988897985858U, 0x8887798989878657U, 0x8988988768967956U, 0x6789676796667678U,
  0x7989878886886699U, 0x9666866657766997U, 0x6868897969889968U, 0x6877768776775985U,
  0x8776789678798877U, 0x6768997968968887U, 0x6889865788999769U, 0x7779798779887876U,
  0x48778898a97a7875U, 0x9787888a8a75aba8U, 0x8a45976957775768U, 0xa59a757777955655U,
  0x878797487a86795aU, 0x8a8969898978a876U, 0x678858a958956776U, 0x96886a979865a578U,
  0x69aa78a977987987U, 0x959996657a758865U, 0x65a6667977788759U, 0x7676564777866966U,
  0xa877477777679486U, 0x5564957778978895U, 0x8889476689796959U, 0x55499876a8a67977U,
  0x987877665576888aU, 0x7786886777896897U, 0x6699787699699787U, 0x6975897788688878U,
  0x99885786777885a5U, 0x6676857676685888U, 0x8676776687588899U, 0x7767968867986a76U,
  0x7766675777689877U, 0x6a8677899688687aU, 0x8887847676775796U, 0x9888999789889599U,
  0x7778967888976978U, 0x99a6759697687869U, 0x8778689887867795U, 0x9996568576798679U,
  0x7878787887788777U, 0x7787687877878777U, 0x8777779878876777U, 0x8988768888877877U,
  0x7877888887878887U, 0x7876786877877778U, 0x7888887787777788U, 0x7777887878677777U,
  0x7787877776777877U, 0x8778788877877777U, 0x8877797877977777U, 0x7887767787777887U,
  0x7876887787878777U, 0x8887786878878787U, 0x7776887888888888U, 0x7878767878868887U,
  0x7687887778777888U, 0x9878887888788897U, 0x7778687787688788U, 0x8787878777786877U,
  0x8887777677677778U, 0x8787778778887888U, 0x7777777877878777U, 0x8767878777888878U,
  0x7787886788777978U, 0x8888777768768878U, 0x7778868768788788U, 0x7877787787877777U,
  0x8788888787777878U, 0x7787778778887877U, 0x7877778888877878U, 0x7877878778986777U,
  0x7779787678676785U, 0x7777678475868547U, 0x7996879799977798U, 0x7988978989b766a8U,
  0x7777989778868968U, 0x79877a5778888676U, 0x9a87977776888677U, 0x5687987766787676U,
  0x8887778876777568U, 0x65577a67878858a7U, 0x8a567b7887777977U, 0x7898777897587997U,
  0x7768976776998978U, 0x787a7b6969887788U, 0x8767b866666aa687U, 0x76888879875889a7U,
  0x8778876787778877U, 0x7787567687888668U, 0x6797899879976887U, 0x7987777788877697U,
  0x6786787789988868U, 0x7787887886977567U, 0x7987a88878777777U, 0x6797797687667887U,
  0x7787878787877776U, 0x8656997888687797U, 0x79787a7797888878U, 0x7777768778577788U,
  0x7987876687886876U, 0x8867897968897877U, 0x7887886878789778U, 0x7878877977777987U,
  0x66569999988a8877U, 0x89688a878968a878U, 0x8766866968775857U, 0x8699667766766776U,
  0x876978699a87777aU, 0x9878878898877768U, 0x689869a969878966U, 0x9899698698868799U,
  0x689999a988a768a8U, 0xa887977569768776U, 0x5777869868979769U, 0x7765666866865777U,
  0x988669976a678585U, 0x4558989787979876U, 0x6999876789877888U, 0x6858987679965866U,
  0x8768675666877899U, 0x6797886888787876U, 0x6589688588698778U, 0x776568767758aa69U,
  0x99975678676895a6U, 0x85789586867758b9U, 0x77877875884a778aU, 0x98658687779a8a76U,
  0x6687777589688975U, 0x79868798977a9779U, 0x87986585768677a7U, 0xa7779a7878969569U,
  0x6897777998955888U, 0x78966795955a7788U, 0x888779a879766894U, 0x798567877579766aU,
  0x9887667665657777U, 0x7787757667884677U, 0x779968969888a798U, 0x6866888888899789U,
  0x7787769665688785U, 0x6766876667888787U, 0x87769666a7787688U, 0x6856956857886765U,
  0x8765765677579657U, 0x6886597a86887889U, 0x9976796797776695U, 0x988a889799799889U,
  0x5678977786876a7aU, 0xbb986767776a6679U, 0x8666798867778787U, 0x8797677977598798U,
  0x7566897987889957U, 0x9968687494598339U, 0x78b787888a867867U, 0x5a887976878765b6U,
  0x5778769987985868U, 0x7796887798967468U, 0xab88a87868967756U, 0x58896756a5676698U,
  0x6979997895866388U, 0x87469867766759b7U, 0x6a38899988989a67U, 0x6866758867467796U,
  0x79869884896a8987U, 0x786a9c8937869977U, 0x7998c8679a88a478U, 0x8889789858587986U,
  0x67678a8889998978U, 0x89689a789978a878U, 0x8676876956676968U, 0x9699677665766777U,
  0x987888699a87767aU, 0x9679878897767889U, 0x67896a9869778987U, 0x99a86996988797a9U,
  0x698a99a8a9a668a8U, 0xa889958568689775U, 0x5688779877979769U, 0x7655677856767767U,
  0x9a85698879677595U, 0x4567878787889a76U, 0x6aa987789a876877U, 0x7867989678966768U,
  0x67787899a8898866U, 0x867868878686a768U, 0x7966889967a75976U, 0x9799858868a66587U,
  0x5577aa7869b76a59U, 0x89898a6a99a7a657U, 0x6897889957967786U, 0x77976a6687569687U,
  0x78a987a977987687U, 0x8587a96679658885U, 0x78687a7987899758U, 0x6677556778767976U,
  0x9977677688798787U, 0x7658896969978895U, 0x7877986888598769U, 0x5669989988968996U,
  0x6666898978799866U, 0x9958888888679889U, 0x8975856758767968U, 0x7787686667866676U,
  0x8669977898975769U, 0x8898999799878678U, 0x8888788878968766U, 0x7889767697877689U,
  0x598a879777987899U, 0xa778867668867887U, 0x6778869a79978889U, 0x6676777876876876U,
  0x9887779688598686U, 0x6576a88879879966U, 0x7989766789897769U, 0x8769889779977876U,
  0x8878777787787788U, 0x7787688787878778U, 0x7788879879898777U, 0x7787787778778788U,
  0x7877787887988788U, 0x7678778886988788U, 0x9778888878888786U, 0x6787897788668887U,
  0x8698788878878787U, 0x8876997897786887U, 0x7888797787898778U, 0x8777768888678787U,
  0x7777877778888887U, 0x8878788768778787U, 0x7887897878679787U, 0x7887867878888887U,
  0x7988777677677699U, 0x6796978968777987U, 0x8768686776688688U, 0x7667778978578969U,
  0x9898867577588885U, 0x6668678778686997U, 0x7566767886697778U, 0x8776968969a87867U,
  0x9666776669588978U, 0x7999578887979657U, 0x8697856676656676U, 0x9897899688998878U,
  0x8578867967957778U, 0x8796557696777778U, 0x9667569866876986U, 0x8786866687868678U,
  0x5778888899796866U, 0x9787577787879668U, 0x6976889967976876U, 0x98a8877698b67576U,
  0x56868a7978a7895aU, 0x7989797a89a79558U, 0x7987899958a76795U, 0x67986a7687469687U,
  0x8798789986988786U, 0x9566a86698777795U, 0x78677b8987998768U, 0x6686556878677877U,
  0x8987677788799777U, 0x7758797958978896U, 0x7976985688699879U, 0x5768888987867995U,
  0x6888877989786876U, 0x8778578778879768U, 0x7987a79967976877U, 0x9898867877a66687U,
  0x56869a6879a86969U, 0x6988896987979669U, 0x8898989957967876U, 0x77877a7687569687U,
  0x7798889977877878U, 0x9586996798767785U, 0x68876a7897898769U, 0x6777655787677787U,
  0x9887787678798766U, 0x7767896a58978795U, 0x7876885787799869U, 0x67598989878679a6U,
  0x9788668756878789U, 0x6787977867885887U, 0x8688776597578798U, 0x5866897777688978U,
  0xa879758686489596U, 0x8676969476785987U, 0x8677786598687779U, 0x7767959968a86978U,
  0x8756685678687877U, 0x6988579876888879U, 0x87887486687567a6U, 0x98799a9777988698U,
  0x6677878977766888U, 0x8898769696486769U, 0x778867a777967786U, 0x9895667566787668U,
  0x6867887988787966U, 0x877767978777a879U, 0x7976878a68976866U, 0x9789868798966586U,
  0x66769a7869a77969U, 0x6a89796a89989768U, 0x7888889957857886U, 0x77986a7687567577U,
  0x7899879988978888U, 0x7576996668767785U, 0x78787a7888899769U, 0x6777656987777976U,
  0x9987677697798776U, 0x77687979689778a6U, 0x7886886787699779U, 0x6759889988867986U,
  0x789a556787676688U, 0x65b6667867a78787U, 0x77898988878975a8U, 0x8777a799a978a879U,
  0x78a5897656879787U, 0x58886768669a9786U, 0x7775878976796789U, 0x7685998858897755U,
  0x9676657758699856U, 0x57767988a8898777U, 0xa8776956a4576786U, 0x87a97876a998a979U,
  0x777a855885a87778U, 0x9877476897796597U, 0xa667878765588877U, 0x6776776885779798U,
  0x89aa868787775696U, 0x7595559454a77446U, 0x788878a988a976a7U, 0x7a7897999a98789aU,
  0x57878a9556868987U, 0x677759495779a576U, 0x8966b67894796688U, 0x6567996977586756U,
  0x9687557756698466U, 0x75478b88968868a7U, 0x9b556b6685685877U, 0x88aa7696a84a89a8U,
  0x7558975785978959U, 0x887a6a5966875697U, 0x9547c6766559a888U, 0x7577866a7657a8a7U,
  0x7989786788686688U, 0x6697878b7b778bb7U, 0x7756895956797687U, 0x9567879877678858U,
  0xa997794778769787U, 0x8768768877888a87U, 0x6587568777787699U, 0x978799976aa89877U,
  0x8597768679788b75U, 0x88b887979978a646U, 0x85a7558786766578U, 0x8778686887a87747U,
  0x8777676987767678U, 0x67947376a67887a7U, 0x9788369867575a76U, 0x7777997787a69669U,
  0x8778666677778889U, 0x7697876787886777U, 0x7688698678678779U, 0x8875888777679888U,
  0x8887666776687696U, 0x7687868677786899U, 0x8776776677688789U, 0x8876967777997986U,
  0x8776876587688877U, 0x7987679887897778U, 0x8777788687766698U, 0x9778898889779789U,
  0x7887887888876888U, 0x8787778786688878U, 0x8887789877767795U, 0x8877768876877669U,
  0x8787776656867699U, 0x7788987867775787U, 0x7678676597579788U, 0x5765798777588988U,
  0x9988658786587696U, 0x7676868577596996U, 0x8677676698598869U, 0x8867859967996977U,
  0x7756685578687878U, 0x7a8856987678776aU, 0x97777485777667a6U, 0x98889a9776888678U,
  0x6687888978767878U, 0x8898668596597869U, 0x8679779887967685U, 0x9895567566777859U,
  0x7877777787787798U, 0x7878987978876887U, 0x7777776687677888U, 0x7777767776688878U,
  0x8777877777678687U, 0x7678778778778877U, 0x7678667787789878U, 0x8787878777988768U,
  0x7877777678778988U, 0x7799678878877878U, 0x8687757867778887U, 0x8777786777987877U,
  0x8777678987767687U, 0x8787768787777768U, 0x8789677787866877U, 0x8686787688887778U,
  0x7887877888877877U, 0x8777878887677887U, 0x8778777788888878U, 0x8887778887777877U,
  0x7778878778787778U, 0x8788878777788777U, 0x7777786888877887U, 0x8778877787877876U,
  0x8778778788777878U, 0x8777778788778777U, 0x8787677877768878U, 0x7887878877887877U,
  0x7887778887777788U, 0x8777787778777777U, 0x7688787787877877U, 0x7778777878787788U,
  0x9786685646756888U, 0x6887876987785887U, 0x76a979858868a798U, 0x686579788778a889U,
  0xa988679775678695U, 0x75858695677767a8U, 0x9776766597589778U, 0x6876858767a97966U,
  0x6656885576799966U, 0x687567a99788688aU, 0x7677668667866796U, 0x9978aa9889779689U,
  0x6897878898676878U, 0x9997868686588869U, 0x777859a887876785U, 0x8897469666697679U,
  0x7778778777877787U, 0x7887878777877777U, 0x7887787977979877U, 0x8878888777887777U,
  0x7787887887777786U, 0x7788787777778777U, 0x8787887878777877U, 0x8787786787877877U,
  0x8787778787878777U, 0x8877877888777877U, 0x7877787778888777U, 0x7687777777778787U,
  0x7777887786877877U, 0x7778687787787778U, 0x9877877887777878U, 0x8878777777777887U,
  0x7678787888887877U, 0x7687678687788667U, 0x6897889878988787U, 0x7888787877998787U,
  0x6787798877997878U, 0x7777875887778679U, 0x8987988968886787U, 0x6788796877676777U,
  0x8788878977877587U, 0x8767997776776886U, 0x8867797878788879U, 0x7877878678678797U,
  0x8777887779788977U, 0x8878787968787787U, 0x8776976878789787U, 0x8767987878878887U,
  0x8887787678798788U, 0x7788998a78876987U, 0x9767775676578778U, 0x8668787787577968U,
  0x9778757787678877U, 0x8768789678577977U, 0x6677677787797878U, 0x8878759778997789U,
  0x7877778788777988U, 0x8899558869778869U, 0x8587748867767787U, 0x8878797776a87768U,
  0x7787688868768677U, 0x7697768596787868U, 0x7789768778876766U, 0x7777677677898768U,
  0x798866667786679aU, 0x66a7967988986986U, 0x6579798686889786U, 0x867688798858a959U,
  0x888568776767a696U, 0x6767867775887a98U, 0x7686677796698699U, 0x9876879868988986U,
  0x9576676678778876U, 0x67976889978a9659U, 0x9898677685667697U, 0x978989878898966aU,
  0x7678766987967779U, 0x8897678698697688U, 0x767668a877756996U, 0x8885776695778669U,
  0x8897677766867789U, 0x7798559577886667U, 0x577979a688979886U, 0x8885887889999789U,
  0x5777799765788786U, 0x5777976776a77687U, 0x7887977797787788U, 0x7866775768586775U,
  0x8675686778668757U, 0x68766a8a86896788U, 0x9a778a6697697686U, 0x7889978889679889U,
  0x7778867886887a6aU, 0x9979697989687679U, 0x8665a8787877a897U, 0x8897777a86687886U,
  0x6886777868777787U, 0x7768887988778887U, 0x7877776778788777U, 0x7676878777677977U,
  0x9878778777778768U, 0x7877879788777978U, 0x7788677788767778U, 0x8887768777889777U,
  0x8786777788787877U, 0x8798678778778879U, 0x7688758877767877U, 0x8767887877877878U,
  0x7778778877877778U, 0x7677768687787778U, 0x8887687787876867U, 0x7877778787877778U,
  0x7767889998797866U, 0x9868779788669768U, 0x8a76968977976867U, 0x9699767877965677U,
  0x5668987988975a58U, 0x9a996a698886a758U, 0x7989788867a68875U, 0x7689696887558598U,
  0x6998898987976688U, 0x9578995758668896U, 0x67879b7a68899759U, 0x6676656766675a66U,
  0x8877697757799677U, 0x7668896969a69886U, 0x7987a7568889787aU, 0x7569988a89877995U,
  0x7787878777768698U, 0x8778a87868777797U, 0x7767676776687878U, 0x7677877787688777U,
  0x9778867778677777U, 0x7877888668677997U, 0x7777676687778878U, 0x8868968878988889U,
  0x7876787677877878U, 0x7789668878888769U, 0x8689858778877877U, 0x8887887787a87977U,
  0x8788679867777787U, 0x7786867687687768U, 0x6788678776985877U, 0x7687678787888769U,
  0x7878778768778878U, 0x7888987979777998U, 0x8678875787687888U, 0x7777878788788877U,
  0x9777877778577687U, 0x7787779778787987U, 0x7778676678788788U, 0x9878769778887877U,
  0x7877877778787988U, 0x6799568778888869U, 0x7688858777677787U, 0x8877786787978867U,
  0x7777688887777777U, 0x8786868787788868U, 0x7687778778876867U, 0x8777778788877868U,
  0x6677788999787877U, 0x887768968877a768U, 0x7976989967976876U, 0x9999778888a67697U,
  0x56779b7879a67969U, 0x7a89787a88979657U, 0x6788899967968776U, 0x7797797787568687U,
  0x7699779986977787U, 0x9667995588777885U, 0x78677a8998898759U, 0x6676657878677976U,
  0x9868777688799776U, 0x7758796969a78796U, 0x7886a857886a876aU, 0x7668a88a87777996U,
  0x7787787768778777U, 0x7777887868876887U, 0x8877776777787777U, 0x7777877788777768U,
  0x9776766787677676U, 0x7777779778787876U, 0x8667677787787788U, 0x8887868878888877U,
  0x7877787788787977U, 0x7898668778768769U, 0x7698768767777887U, 0x8778786778987877U,
  0x8787888988877588U, 0x7786768787777788U, 0x6788788787886777U, 0x8777787777888678U,
  0x677698a9a8998775U, 0x9967598577679669U, 0x9a66978967976876U, 0x979a658778975687U,
  0x6567a87899975a5aU, 0xa999897a99869667U, 0x7989889858a67965U, 0x87996a7886658579U,
  0x79a8889a86965587U, 0x9688986669768896U, 0x7988898959989759U, 0x6786666966675976U,
  0x988769865779a786U, 0x6769898958968976U, 0x6987a65788798869U, 0x6769a87989867986U,
  0x57689899898a8866U, 0x8777898a8b76aba9U, 0x8945865957775768U, 0xa59a657888855656U,
  0x768797578a966869U, 0x8989788999878867U, 0x6687689967967877U, 0x879859969876a598U,
  0x79aa78a876a77a88U, 0x969996656a759876U, 0x75b7768978989759U, 0x6776655865866865U,
  0xa876477779779586U, 0x5464858788978886U, 0x7899475778886a7aU, 0x67599978aaa68876U,
  0x8899967788676687U, 0x759646a454a67448U, 0x88a888b899b986a8U, 0x7a899889799987a7U,
  0x579778a566988887U, 0x7886694a67898676U, 0x9956b78976786868U, 0x5657896a66766757U,
  0x9776667956698569U, 0x57576a78759858a6U, 0x9b468b5786686776U, 0x78aa8696975a98a8U,
  0x7559986775989a59U, 0x997b7a5968875697U, 0x8656b6766559a677U, 0x7787766a7848a9a7U,
  0x7778777888867878U, 0x8788577687777657U, 0x679887a878a78877U, 0x7987778878978687U,
  0x6887788787a88878U, 0x6887797777978678U, 0x8998a89887787887U, 0x6787796776678777U,
  0x7789778877877667U, 0x6666997886687786U, 0x7a787b7876898788U, 0x8787867878588789U,
  0x7887877698797877U, 0x8779887968888786U, 0x8866987877689787U, 0x6878887a87788996U,
  0x7798777866868876U, 0x8597558363a77337U, 0x68a888b899a89696U, 0x5b778889799998a9U,
  0x577678a666878a76U, 0x6876794778a88676U, 0x8977b97785887777U, 0x6688676866576766U,
  0x9776656858787558U, 0x66456b79867969a8U, 0x9b488c5697796976U, 0x77a99688a94998b8U,
  0x6779976695888a69U, 0xa97a6b5968796678U, 0x8545c8776679a688U, 0x7787798a874788b7U,
  0x686778878778888aU, 0x7888a98a89787ab6U, 0x7658875877577778U, 0x8687677676488968U,
  0x8877576797698597U, 0x776895a776777879U, 0x7677588878676898U, 0x9988779888888a89U,
  0x7767977689777a86U, 0x9aa784878788a657U, 0x75a7839677777578U, 0x8767788767a78568U,
  0x7887787868866697U, 0x668564a687778786U, 0x6999478988854977U, 0x7977678567887648U,
  0x7877878767877887U, 0x7777977979787988U, 0x7878677767677787U, 0x7666868787788777U,
  0x9777776788788877U, 0x8787779677777887U, 0x8777677787778878U, 0x8778879778878887U,
  0x7887887778778887U, 0x7889568679878769U, 0x7688868787778777U, 0x8787787877877877U,
  0x8778688888767788U, 0x8786868698777768U, 0x7788688787886977U, 0x7787676787887668U,
  0x78559a8979988976U, 0x7959798898687897U, 0x7876867868777867U, 0x8777676777966765U,
  0x8767866889977868U, 0x7778888898878768U, 0x7888798787958867U, 0x8899668597669699U,
  0x5989888897a76899U, 0x9788867668657779U, 0x5679878878989878U, 0x7665766966867776U,
  0x9a8678a778587695U, 0x6657978777869978U, 0x6999786799887869U, 0x8779788878976886U,
  0x7778776797877888U, 0x8777788778878668U, 0x8887878798887876U, 0x7887778878877798U,
  0x7777789777787887U, 0x8787887877789768U, 0x7888987877786776U, 0x7778787886878868U,
  0x8787778877768678U, 0x8867887787777797U, 0x8867888777787877U, 0x7787778788778887U,
  0x7778887667877878U, 0x7878797977877787U, 0x8877877877789678U, 0x6787887778678887U,
  0x59678898987a7977U, 0x9777997b8b76abb9U, 0x8956875947785679U, 0x959a757686855657U,
  0x878797587985795aU, 0x8879799889779868U, 0x6677579959966876U, 0x868979968976a589U,
  0x689978a988898a88U, 0x969986758b859757U, 0x64b7758978788759U, 0x6676565676966856U,
  0x9887487868898486U, 0x5564748788a68896U, 0x7899466688785969U, 0x6559988698b77866U,
  0x7878778887888789U, 0x8877a86a89687aa7U, 0x7757775775588888U, 0x9676788766568957U,
  0x9778765787687687U, 0x8768869687788978U, 0x6578487788767778U, 0x988876988a977789U,
  0x6877888799877a88U, 0x8aa965867777a558U, 0x75a9738869778687U, 0x8767888768a77657U,
  0x7787688878767687U, 0x6675859597888868U, 0x6898469988954986U, 0x8887778678987658U,
  0x7777777778788888U, 0x7978a96978777997U, 0x8667775776587879U, 0x7768777786677967U,
  0x9788767988666697U, 0x977777a687776897U, 0x6678577678777888U, 0x9878869878a88878U,
  0x7877677689777998U, 0x8899658778778668U, 0x8588748769767778U, 0x9878798776976868U,
  0x7878689978768798U, 0x7787769596777878U, 0x7899678887875776U, 0x8776787589887659U,
  0x5799877798795975U, 0x7595579677949658U, 0xa986878879995689U, 0x878894a788b686a6U,
  0x8986987679938969U, 0x9897596969599684U, 0x9a65879a67875767U, 0x45878aa876699579U,
  0x879a5698559b8798U, 0x9366a775799758a5U, 0x78656c6876767a79U, 0x7787464585688888U,
  0x9768596867998766U, 0x66868a67768767a6U, 0x7779a464575ba668U, 0x44588776a78779b7U,
  0x7779777888777878U, 0x7888579576888767U, 0x688889a879a77776U, 0x7987787887977597U,
  0x6767889777a87888U, 0x7787776876888678U, 0x8987987877877788U, 0x6786897877677876U,
  0x8788788777878676U, 0x8666997887788887U, 0x6a686b7778898788U, 0x7886768788588798U,
  0x7878867698788978U, 0x8878796a68888787U, 0x876698778878a787U, 0x7778887987678897U,
  0x7666999a87898865U, 0x9858677777687659U, 0x9a86857879867878U, 0x7999777778975585U,
  0x7669988789975959U, 0x8996797889778557U, 0x9978988867968955U, 0x78896767a6567588U,
  0x7a79877886786689U, 0x8657965667756997U, 0x687798896a998968U, 0x6876758866676895U,
  0x8977789677698776U, 0x6757a97969968877U, 0x6888965687789669U, 0x866a88976a788986U,
  0x8799768797665687U, 0x6596559465987446U, 0x688879a888b885a6U, 0x6978878a8aa97798U,
  0x4767899576967976U, 0x7986594857899667U, 0x7a77b77776896777U, 0x7567786977476655U,
  0x9767656957688567U, 0x75576b78859779a6U, 0x8a567c5786685886U, 0x77a88695975a7998U,
  0x756997776598894aU, 0x897a6a5967875697U, 0x9646b7766569a778U, 0x7687866a7758a9a6U,
  0x9887777677878799U, 0x7777a88766786776U, 0x8787685686678876U, 0x7667878987688a79U,
  0x8878777776689696U, 0x8758778666787997U, 0x7787776787698789U, 0x9876979978a97977U,
  0x8776766679777887U, 0x7989679986798678U, 0x8777857667766687U, 0x9779898888886878U,
  0x6777988867857889U, 0x9898667796777778U, 0x767776a876866876U, 0x9985876776778679U,
  0x67669a8979887877U, 0x8979787898678988U, 0x7866876868777867U, 0x9788677665866665U,
  0x8677876999987869U, 0x7889888799867767U, 0x7799798768867977U, 0x87986786a7679698U,
  0x5989898886966898U, 0x9888866779668778U, 0x6679778978989778U, 0x6766767976877877U,
  0x8986689888688686U, 0x7665978868879886U, 0x6998786879987859U, 0x7879889798976875U,
  0x8887678568878699U, 0x6787a77967876887U, 0x9688675696888788U, 0x6766788788589978U,
  0x9878777687579696U, 0x8767777777687997U, 0x6677776786697789U, 0x8876978869986877U,
  0x9876776579687867U, 0x6899569876788668U, 0x8667857667766786U, 0x9788898788997779U,
  0x6779878866857889U, 0x88a86676a7687688U, 0x7668779777966777U, 0x9796787676688679U,
  0x9988668667877698U, 0x5787a77967886886U, 0x8679685596789688U, 0x6766797999689969U,
  0x9878768675589796U, 0x7658876577686997U, 0x76676766966a7799U, 0x9766a68958987977U,
  0x8655766679579978U, 0x6a99589877888779U, 0x9886857687766697U, 0x9778a99789988779U,
  0x7679967866757769U, 0x7897756586676759U, 0x7666779876965886U, 0x9895665666987779U,
  0x8778677787787776U, 0x7678578676877667U, 0x6788889878987876U, 0x7888888887977797U,
  0x6877789878988889U, 0x8887776977877678U, 0x8987988867778676U, 0x7787797787676897U,
  0x7777878777877676U, 0x7657897887686797U, 0x7a787a7777788778U, 0x7676778878688888U,
  0x8777877677788887U, 0x8869796968888788U, 0x8777886878788688U, 0x8778887877689895U,
  0x9898666556657777U, 0x7597768767975777U, 0x678a79869889a7a8U, 0x6765978989899888U,
  0x6786777655678775U, 0x6787876767887887U, 0x8866965697688678U, 0x7766967857896856U,
  0x9656765667589767U, 0x5867598a96786879U, 0xa877795796786995U, 0x789a998899699889U,
  0x6669867886887a6aU, 0xaa97776787596679U, 0x9566799875779886U, 0x9797687876689788U,
  0x6676889988898956U, 0xaa5968868766866aU, 0x7986868969857977U, 0x6898687677976595U,
  0x8768977989975859U, 0x789779779a768657U, 0x8978899867a58755U, 0x678a687695667599U,
  0x7a99888985867799U, 0x96679666676569a7U, 0x6867989a7a888a78U, 0x5876767866667885U,
  0x88767895885a8786U, 0x6667a97969978976U, 0x7889865688999659U, 0x867b88987a776886U,
  0x8777787787877868U, 0x8787578586887667U, 0x7887889978988776U, 0x7878777777977788U,
  0x6787888778988878U, 0x7788676876968677U, 0x8887987877877688U, 0x7886887887677977U,
  0x6697788877877677U, 0x86669a6776777797U, 0x79776a7887878778U, 0x7687878777577897U,
  0x7788876787787867U, 0x7869797968788777U, 0x7876976887789788U, 0x7888987878678887U,
  0x7a885665778675a9U, 0x56a6987979978995U, 0x76787a6676799588U, 0x8676878987679959U,
  0x888568676757a6a7U, 0x8669768786887a97U, 0x65766777975976aaU, 0x978697a95a999967U,
  0x8587687669688a74U, 0x77a7779998899556U, 0x9698556594666598U, 0xa777897789a7975aU,
  0x7678676a97966888U, 0x77975576a66a7698U, 0x7787599967675a86U, 0x7875766684979669U,
  0x7778778687777787U, 0x8787577777877776U, 0x6888879777887677U, 0x8788787778967788U,
  0x7777878788887779U, 0x7778787777778778U, 0x7877988878787787U, 0x6778796787788786U,
  0x7688878877878776U, 0x8777888887888776U, 0x7878798796787778U, 0x7777877778678778U,
  0x7877878877777878U, 0x7878798977778886U, 0x8777877877788787U, 0x7866877887667888U,
  0x6789798999898776U, 0x978777978786a778U, 0x8986878977875876U, 0x8789678878876686U,
  0x768699877a966969U, 0x8987687998978866U, 0x8977889957856766U, 0x77887a8787668678U,
  0x799977a977977788U, 0x9778a86588777885U, 0x8877886988798858U, 0x6787566886786887U,
  0x9877796778788776U, 0x8658787879966796U, 0x8879966667787769U, 0x6768aa7988768886U,
  0x99a9769878765695U, 0x759655b445a66447U, 0x999998b797b896a7U, 0x7787879a7bb98898U,
  0x578797a666878a66U, 0x69665b2a58599775U, 0x8955b67884887887U, 0x64577a6a76766657U,
  0xa775566957678558U, 0x67586c7976976898U, 0x9b558d5787776666U, 0x78aa8687975b7a97U,
  0x8549987665a8aa49U, 0x997b7a4778865588U, 0x8545b586466aa699U, 0x7798764aa855abc6U,
  0x876768667777787aU, 0x7876766777786887U, 0x6589788677678779U, 0x7876797787689879U,
  0x89886778776885a6U, 0x7677869686676787U, 0x8677876698598789U, 0x7777877768998977U,
  0x7776886687679777U, 0x6987678998897878U, 0x6888767576877697U, 0x88789a8779769699U,
  0x7787767897775879U, 0x8797877777697889U, 0x9876899977857795U, 0x8886657777688568U,
  0x6666a999998a8868U, 0x89688a7788579779U, 0x8875966857865857U, 0x9799666666766877U,
  0x776878799a86677aU, 0x9878778997767768U, 0x7778799959867987U, 0x879869779876878aU,
  0x6889799898966898U, 0xa778967568778686U, 0x478777986898976aU, 0x6766667866856867U,
  0xa886699769679585U, 0x4577978778979875U, 0x6a99876889786869U, 0x6767988779976967U,
  0x797867678887879bU, 0x6687976a79897ab6U, 0x6468796677688686U, 0x8666898876469858U,
  0x8795495868799497U, 0x665983b884987998U, 0x54865787786886a9U, 0xa79698766a998b76U,
  0x868786867a878a75U, 0x7a978588986aa556U, 0x95aa526596688488U, 0x8686889888959769U,
  0x7798765887855696U, 0x7785649798697797U, 0x99a649aa78645996U, 0x7a86977975967448U,
  0x8877778777888888U, 0x7777668777787877U, 0x8877888877777788U, 0x8887768868777687U,
  0x8877788877877778U, 0x7788888877787778U, 0x8877888868777777U, 0x8777777887777877U,
  0x8788877677877787U, 0x6777977887887887U, 0x8877777788878878U, 0x7778777788788877U,
  0x7877788788787768U, 0x8888777878888777U, 0x8777878887776797U, 0x7888887777778888U,
  0x888867676776769aU, 0x66a6877879986885U, 0x6579796586798687U, 0x866687788767a969U,
  0x989668778769a697U, 0x7669768665787998U, 0x766676668769769aU, 0x877688875a898976U,
  0x8577678679678865U, 0x6887888897799668U, 0x8788676596666596U, 0x979889778898976aU,
  0x7778776987966879U, 0x8897568697697788U, 0x867768a877766995U, 0x8976766685877779U,
  0x8788788787878778U, 0x8878778787788777U, 0x7777777878887787U, 0x7877888877788777U,
  0x7787878787787887U, 0x7888786887888877U, 0x7787888877877769U, 0x8776787878777787U,
  0x7778777788877778U, 0x8777888896777798U, 0x8766787778788877U, 0x8777778877778787U,
  0x7787877887878787U, 0x8887777777877888U, 0x9776787868788787U, 0x7787877877678877U,
  0x7786788877778877U, 0x7887887977777787U, 0x8878767886778778U, 0x7877878787787778U,
  0x8678787778787767U, 0x8779778688787778U, 0x7788767787778777U, 0x9867768878878887U,
  0x7877777887877878U, 0x7778767778877768U, 0x7787867878688887U, 0x7877787887877877U,
  0x7888679778787887U, 0x7787878786777778U, 0x8788678777876776U, 0x8787777777887778U,
  0x8876877768878778U, 0x7877a87977777887U, 0x9767765677687888U, 0x7678878877688877U,
  0x9787666668567777U, 0x8878889578677978U, 0x7777667797778877U, 0x8767768878987788U,
  0x8777777788777988U, 0x8899668768888769U, 0x8677847678767886U, 0x9988787887977777U,
  0x8678778967767688U, 0x8786768587678778U, 0x6788778787965877U, 0x8787787688787668U,
  0x8878878678778777U, 0x7787688787887667U, 0x7886788887878786U, 0x8777886787887887U,
  0x7886897777888888U, 0x8877887878988888U, 0x7788887887988888U, 0x8888887877677877U,
  0x8877877887877787U, 0x8776989787687777U, 0x8887787778778777U, 0x8777868877776888U,
  0x7877987767787877U, 0x7789887876867777U, 0x7677878778788777U, 0x8787897777678887U,
  0x8789877787786788U, 0x7778578686977567U, 0x689789a989977886U, 0x7887887878987799U,
  0x6677899767987878U, 0x7877785877988667U, 0x8887987877888887U, 0x7777796877577877U,
  0x8688768877878667U, 0x7766887887777796U, 0x79677a7797777878U, 0x7887858788688998U,
  0x7787877687888877U, 0x8879796968787788U, 0x7765977777679778U, 0x7788897977777996U,
  0x7567997877797a55U, 0x9867476597678659U, 0x798666987a976879U, 0x8989777578a87695U,
  0x6778979877876a68U, 0x98977a787b778668U, 0x9a78a77789867956U, 0x57796876a5777689U,
  0x5989878894878698U, 0x8466896677755aa7U, 0x59677b9969888a77U, 0x6967776675675796U,
  0x79977886897b9877U, 0x87779a7968879a87U, 0x6978a956786aa677U, 0x6668678778687997U,
  0x8887877767777787U, 0x8777987978877998U, 0x8778777777688788U, 0x7777778887787967U,
  0x8778777777678776U, 0x7777889568787987U, 0x7777678788777777U, 0x9877858879988788U,
  0x7877776788778888U, 0x7898567778779779U, 0x8677867768777887U, 0x8878787877977767U,
  0x8878688978866788U, 0x8787868687877867U, 0x7689678777886777U, 0x8787677687787668U,
  0x6668797888877956U, 0x9886586797789769U, 0x6876989879976878U, 0x9998787779976587U,
  0x6897797978a86869U, 0x88a8797997977568U, 0x8a87988867967876U, 0x6787597696567698U,
  0x689998a996978587U, 0x9566a96688676896U, 0x69776a8887899969U, 0x6876868876677887U,
  0x89966876886a8886U, 0x6858798959998796U, 0x8987986688699789U, 0x6779978a77886886U,
  0x587989678a9aa777U, 0x788989897876a987U, 0x8865676846795868U, 0x9678668776747666U,
  0x977789598b97877aU, 0x88699789a8867977U, 0x669868b958868788U, 0xa9a8799678879798U,
  0x78aa88a888a77887U, 0x9789967579669566U, 0x667977978777977bU, 0x8575575976867767U,
  0xa985677988787595U, 0x5476878788877885U, 0x799a677989776867U, 0x6767998797966778U,
  0x8887778888897777U, 0x8788778777878677U, 0x7788778887888787U, 0x7878787878787887U,
  0x7787898887978887U, 0x7787686777797778U, 0x8876886888886777U, 0x7788897776777877U,
  0x8778977877778777U, 0x8668787687777696U, 0x7877887787778786U, 0x7788878888687787U,
  0x8777877777877877U, 0x8878787877778777U, 0x8776877777678788U, 0x7777888867778887U,
  0x7878877778777778U, 0x8887778788788777U, 0x7888778777788777U, 0x7767788789787777U,
  0x8777788877777788U, 0x8787877887778877U, 0x7887787777778887U, 0x7886787877787878U,
  0x7877787788887887U, 0x7788777878888777U, 0x7777787887787787U, 0x8878878787777887U,
  0x7877788778777778U, 0x7877878897777788U, 0x7877687888887767U, 0x7788877777887777U,
  0x6a89767689786699U, 0x6697a78a6a977bb6U, 0x7658896865887686U, 0x9578879888669949U,
  0x9896696668879798U, 0x6859868876888a96U, 0x5466579866696699U, 0xa77699997a978967U,
  0x968886876a688a76U, 0x78b888978888a546U, 0x85b7565686677579U, 0x8698777688a88859U,
  0x8779777a76956678U, 0x77756376b6777696U, 0x9776469766674a86U, 0x6776967786969667U,
  0x7989566667768689U, 0x56a7867978886986U, 0x7579797676798688U, 0x867698788867a969U,
  0x899658766767a697U, 0x6668867765786a97U, 0x66876777875a87a9U, 0x8775989958998966U,
  0x8676777679789875U, 0x79977898978a9668U, 0x8788677585776596U, 0x9688897789979769U,
  0x7887876987856788U, 0x9887667597697788U, 0x8677689877767895U, 0x8995767785887778U,
  0x786867566787779aU, 0x57a6997878787996U, 0x7578697677688687U, 0x8666787877579a79U,
  0x8a9766678758a697U, 0x76778596856769a8U, 0x75776776885a869aU, 0x9886789879999a87U,
  0x758778767a687885U, 0x888676a8988a9669U, 0x7788568576767588U, 0xa7678a7687a6966aU,
  0x7887777a77856788U, 0x7787668695698877U, 0x799679a8886569a5U, 0x798566767589756aU,
  0x7755a9aa77979a66U, 0xaa5a995999497999U, 0x7867957878657a56U, 0x8797694676676666U,
  0x665a767a97896766U, 0x899897969865765aU, 0x878a69677a969966U, 0x8a68566697667798U,
  0x5987aa78a8756899U, 0x8a87865757567868U, 0x66a994986a99a787U, 0x6856869968767766U,
  0x79a679a679688797U, 0x6767a5a969879967U, 0x59985969aa966779U, 0x996988986a996965U,
  0x9887666666878698U, 0x7876a87877785797U, 0x8679686588689688U, 0x6756787787599988U,
  0x9989658686488696U, 0x8676788576685997U, 0x8767666698587779U, 0x8867958867996878U,
  0x8765686568688867U, 0x6a88569887888869U, 0x8777748667757896U, 0x98789a8777987688U,
  0x7687879878867779U, 0x8897858596597868U, 0x879868a777966785U, 0x9895676578787669U,
  0x76778888a8786865U, 0x9867477586769548U, 0x7a86969989a77777U, 0x798a86888ab76697U,
  0x5789b68778965b58U, 0x7a986b597a779656U, 0x8a79988867a66855U, 0x5668787696568578U,
  0x7989889985998588U, 0x85588a66798569a6U, 0x69568c8a77887a78U, 0x6787657887676a95U,
  0x87676786888aa867U, 0x66799b6958977886U, 0x7878b655686aa679U, 0x6569987978868ab5U,
  0x9699878775866787U, 0x8687568474785347U, 0x97a897b8a9a69897U, 0x5a9789897a7a88b8U,
  0x687878b766786996U, 0x7875785667788687U, 0x9a77b76786777778U, 0x5767875865784766U,
  0x8866775866698468U, 0x67466a79758758a8U, 0x9b478b7697896885U, 0x798998a8986998a8U,
  0x6779b77776888b69U, 0xaa7b7b6957786779U, 0x8666c6878687a587U, 0x88976679774988a7U,
  0x7887887777878787U, 0x7887778787887677U, 0x8787888887878886U, 0x7878887887878888U,
  0x7778888776987977U, 0x7877886978878777U, 0x8788988887788798U, 0x7768787787766778U,
  0x7877877878777776U, 0x7778888886778797U, 0x8867797769778776U, 0x7787868888787787U,
